<unk>	0
<s>	0
</s>	0
ու	-0
ան	-1
եր	-2
ար	-3
ակ	-4
ին	-5
այ	-6
ում	-7
▁հ	-8
ներ	-9
որ	-10
▁է	-11
ել	-12
ութ	-13
ական	-14
ուն	-15
ությ	-16
▁մ	-17
ամ	-18
▁կ	-19
են	-20
ատ	-21
ավ	-22
աս	-23
▁▁	-24
ություն	-25
ագ	-26
ով	-27
▁թ	-28
▁գ	-29
▁ն	-30
▁և	-31
▁տ	-32
▁Ա	-33
ետ	-34
աց	-35
▁|	-36
▁ա	-37
▁(	-38
ած	-39
▁դ	-40
ոն	-41
ալ	-42
իր	-43
▁բ	-44
ստ	-45
ների	-46
ող	-47
▁պ	-48
▁որ	-49
անի	-50
ես	-51
եղ	-52
ության	-53
▁թվ	-54
ահ	-55
▁վ	-56
ային	-57
ից	-58
▁թվական	-59
▁ս	-60
ազ	-61
այի	-62
▁Հ	-63
րա	-64
▁են	-65
▁||	-66
աղ	-67
առ	-68
▁Մ	-69
▁Ս	-70
երի	-71
ված	-72
ման	-73
եց	-74
իս	-75
▁«	-76
▁շ	-77
աստ	-78
▁ան	-79
▁համ	-80
ուս	-81
վել	-82
եկ	-83
▁Կ	-84
իկ	-85
ադ	-86
աք	-87
▁եր	-88
▁Բ	-89
եմ	-90
▁ք	-91
ոլ	-92
ուր	-93
▁ար	-94
▁այ	-95
▁խ	-96
ները	-97
ույ	-98
▁մի	-99
ախ	-100
ագր	-101
ապ	-102
աշ	-103
բեր	-104
ավոր	-105
▁հետ	-106
իտ	-107
յան	-108
▁ծ	-109
իլ	-110
վում	-111
▁առ	-112
ըն	-113
ոս	-114
նակ	-115
րան	-116
ությունը	-117
անակ	-118
իմ	-119
▁լ	-120
▁Ն	-121
արդ	-122
ործ	-123
▁Լ	-124
արի	-125
▁Պ	-126
▁Գ	-127
ազմ	-128
▁օ	-129
▁իր	-130
▁փ	-131
▁ըն	-132
▁էր	-133
▁պատ	-134
անդ	-135
աջ	-136
անում	-137
եռ	-138
▁ու	-139
▁թվականին	-140
յու	-141
ամբ	-142
),	-143
րջ	-144
▁Ռ	-145
ոտ	-146
▁նա	-147
▁տար	-148
արտ	-149
աբ	-150
ություններ	-151
▁Վ	-152
այն	-153
▁թվականի	-154
▁չ	-155
▁ֆ	-156
▁մե	-157
տն	-158
ոմ	-159
▁զ	-160
▁ժ	-161
▁Ար	-162
քի	-163
▁Դ	-164
ոց	-165
▁Ե	-166
այր	-167
▁համար	-168
▁մաս	-169
շխ	-170
արձ	-171
իայի	-172
երը	-173
▁վեր	-174
րդ	-175
արկ	-176
ոկ	-177
պես	-178
▁ին	-179
քում	-180
իվ	-181
անգ	-182
▁առաջ	-183
▁երկ	-184
ագիր	-185
▁հայ	-186
▁Տ	-187
արգ	-188
▁շրջ	-189
ուց	-190
▁ավ	-191
▁ստ	-192
որդ	-193
աղաք	-194
րի	-195
||	-196
▁|-	-197
▁ամ	-198
եյ	-199
իչ	-200
▁կազմ	-201
ոթ	-202
ացի	-203
▁ց	-204
աթ	-205
▁Ի	-206
er	-207
եպ	-208
▁Ո	-209
անկ	-210
ադր	-211
▁ծր	-212
▁Ֆ	-213
ափ	-214
▁գործ	-215
▁ժամ	-216
ուլ	-217
ոյ	-218
տր	-219
ելի	-220
▁աշխ	-221
իդ	-222
այում	-223
ույն	-224
▁Ծ	-225
▁տեղ	-226
▁ձ	-227
ուտ	-228
▁քաղաք	-229
աստանի	-230
▁բնակ	-231
▁ծրագիր	-232
▁ներ	-233
սկ	-234
▁ռ	-235
նում	-236
an	-237
▁նաև	-238
▁ուն	-239
ոչ	-240
▁կար	-241
ոխ	-242
յուղ	-243
նդ	-244
▁գր	-245
յալ	-246
on	-247
▁Այ	-248
անոթ	-249
ատար	-250
▁Ու	-251
տեմ	-252
▁այն	-253
քը	-254
in	-255
▁ժամանակ	-256
▁որը	-257
րո	-258
ումներ	-259
ագրություններ	-260
en	-261
▁-	-262
▁միջ	-263
▁Ծանոթ	-264
▁մար	-265
ությունների	-266
եզ	-267
▁նախ	-268
▁հար	-269
▁Թ	-270
▁ճ	-271
ությամբ	-272
եք	-273
անց	-274
ագործ	-275
▁հիմ	-276
▁գյուղ	-277
▁Հայ	-278
▁մարդ	-279
ոգ	-280
ելու	-281
ներին	-282
ավար	-283
իզ	-284
նական	-285
▁Ք	-286
իլմ	-287
▁ապ	-288
իսկ	-289
աժ	-290
▁օգ	-291
ոշ	-292
▁Է	-293
եղծ	-294
ավայր	-295
▁մեկ	-296
ոդ	-297
)։	-298
▁Շ	-299
աբեր	-300
▁աշխատ	-301
յուն	-302
▁կող	-303
or	-304
աշտ	-305
▁կայ	-306
իպ	-307
արհ	-308
▁ազ	-309
▁Խ	-310
▁Եր	-311
սի	-312
▁սկ	-313
արան	-314
▁եղ	-315
պան	-316
ar	-317
ումը	-318
իստ	-319
▁նկ	-320
▁կողմ	-321
▁վրա	-322
ացել	-323
▁կազմում	-324
▁ինչ	-325
ելով	-326
▁էին	-327
▁կամ	-328
վեց	-329
ոռ	-330
աքին	-331
ներից	-332
ոնի	-333
ակի	-334
շտ	-335
▁որոն	-336
▁Օ	-337
▁նրան	-338
es	-339
տաքին	-340
▁որպես	-341
կեր	-342
▁Ռուս	-343
որհ	-344
al	-345
ուկ	-346
ներով	-347
▁ընդ	-348
▁օր	-349
զի	-350
▁S	-351
▁մեջ	-352
▁տես	-353
իթ	-354
ոստ	-355
եստ	-356
տեմբեր	-357
▁հետո	-358
▁C	-359
լի	-360
▁հայտն	-361
աճ	-362
▁այլ	-363
▁Ջ	-364
րց	-365
▁հղ	-366
▁իսկ	-367
▁Ան	-368
ներում	-369
▁աստ	-370
ը՝	-371
ti	-372
▁Արտաքին	-373
▁մեծ	-374
▁A	-375
ակում	-376
երո	-377
▁տարած	-378
▁առաջին	-379
իճ	-380
յուս	-381
▁կողմից	-382
▁շար	-383
ուհ	-384
անք	-385
ինչ	-386
ալի	-387
▁հղումներ	-388
▁հեռ	-389
յուր	-390
▁այդ	-391
ագույն	-392
▁խաղ	-393
ույթ	-394
կրա	-395
▁պետ	-396
▁կեն	-397
▁հավ	-398
եթ	-399
he	-400
▁կառ	-401
երոիդ	-402
▁ֆիլմ	-403
կրաին	-404
▁անվ	-405
անը	-406
▁M	-407
▁նրա	-408
▁հաս	-409
ակեր	-410
▁Չ	-411
▁կարող	-412
երիկ	-413
եգ	-414
գային	-415
▁մրց	-416
եդ	-417
վյալ	-418
րամ	-419
▁կր	-420
▁I	-421
▁մոտ	-422
ակց	-423
ոք	-424
իսի	-425
նի	-426
▁Բնակ	-427
իներ	-428
▁արդ	-429
▁բնակավայր	-430
▁արտ	-431
»,	-432
ՆԵ	-433
▁ուղ	-434
▁ջ	-435
▁մասին	-436
▁(),	-437
▁հանդ	-438
▁Սոկ	-439
▁ստեղծ	-440
իշ	-441
աչ	-442
▁անց	-443
ոլոր	-444
ԱՐ	-445
▁եղել	-446
▁գտն	-447
ոռո	-448
▁հատ	-449
ինգ	-450
ԻՆԵ	-451
▁ԼԻՆԵ	-452
▁ԼԻՆԵԱՐ	-453
▁Սոկոռո	-454
▁Փ	-455
is	-456
իան	-457
▁նշ	-458
▁Յ	-459
▁պատմ	-460
▁T	-461
կրաինայի	-462
րապ	-463
կայ	-464
աձ	-465
ությունները	-466
նել	-467
▁ի	-468
▁տվյալ	-469
▁P	-470
▁Ամ	-471
տեղ	-472
երում	-473
▁ավելի	-474
▁B	-475
արար	-476
▁պահ	-477
ինակ	-478
եխ	-479
ուստ	-480
▁Ալ	-481
բերի	-482
▁Ռուսաստանի	-483
վող	-484
ոնական	-485
որհրդ	-486
▁պաշտ	-487
սկի	-488
▁տարբեր	-489
▁մինչ	-490
▁Մի	-491
աբան	-492
ողջ	-493
▁որոնք	-494
իա	-495
թաց	-496
ենց	-497
արձր	-498
▁ուս	-499
▁սկս	-500
եծ	-501
▁L	-502
▁Բնակչ	-503
մբ	-504
ապետ	-505
ապես	-506
▁ամեն	-507
արակ	-508
ինի	-509
ic	-510
▁նկար	-511
▁ունեց	-512
▁հուն	-513
▁երգ	-514
րորդ	-515
ուշ	-516
նտ	-517
▁նոր	-518
▁կան	-519
▁ցանկ	-520
ետր	-521
▁հր	-522
ողով	-523
րոց	-524
▁եկ	-525
▁կատար	-526
▁օգտ	-527
▁շրջանի	-528
▁Ուկրաինայի	-529
it	-530
▁N	-531
▁անգ	-532
om	-533
▁ոչ	-534
երմ	-535
▁գլ	-536
րել	-537
▁շրջան	-538
▁դեպ	-539
ակարգ	-540
▁պար	-541
▁գիտ	-542
▁ակ	-543
▁մարզի	-544
ագրություն	-545
▁Զ	-546
le	-547
at	-548
▁վերջ	-549
վար	-550
▁փոխ	-551
րանց	-552
▁հան	-553
▁բաց	-554
յա	-555
▁դեր	-556
ումն	-557
▁կին	-558
▁էլ	-559
▁դարձ	-560
▁որոշ	-561
քն	-562
ակից	-563
ատր	-564
կայաց	-565
▁վար	-566
▁գետ	-567
դամ	-568
▁հիմն	-569
արանի	-570
▁կմ	-571
▁մինչև	-572
ենի	-573
▁արդյուն	-574
▁բնակավայրեր	-575
ահանգ	-576
ոյի	-577
ակայն	-578
բոլ	-579
▁ինչպես	-580
տի	-581
▁այս	-582
ացած	-583
վեստ	-584
շակ	-585
▁քանի	-586
երին	-587
ալս	-588
as	-589
դի	-590
▁բարձր	-591
հան	-592
▁ներկայաց	-593
us	-594
▁օգտագործ	-595
▁D	-596
ոզ	-597
▁պայ	-598
▁R	-599
▁սեպ	-600
ովի	-601
▁կապ	-602
»։	-603
ոսի	-604
ացման	-605
▁որտեղ	-606
▁թվականներին	-607
▁երբ	-608
▁դաս	-609
ափոխ	-610
▁հիմնական	-611
▁ամբ	-612
օր	-613
▁կենտր	-614
▁մարտ	-615
▁սպ	-616
ասան	-617
▁d	-618
աշրջ	-619
el	-620
նտես	-621
▁Ֆրան	-622
ոփ	-623
▁ընթաց	-624
▁մասնակ	-625
ահայ	-626
ur	-627
եքս	-628
▁աղ	-629
▁ծն	-630
րոպ	-631
տանի	-632
▁նվ	-633
▁Բր	-634
ագիտ	-635
եցին	-636
ույց	-637
բաղ	-638
երոիդների	-639
▁երկու	-640
▁Նա	-641
ենս	-642
▁գլխ	-643
ահման	-644
ոբ	-645
քեր	-646
et	-647
▁բան	-648
▁t	-649
ol	-650
▁մահ	-651
▁աշխարհ	-652
եռն	-653
▁շրջանում	-654
ճառ	-655
կական	-656
իական	-657
▁անդամ	-658
ատմ	-659
րանք	-660
▁հոկ	-661
of	-662
▁Այս	-663
ակը	-664
▁G	-665
երազմ	-666
տեմբերի	-667
ուտբոլ	-668
երեն	-669
ևմ	-670
ուղ	-671
▁հն	-672
ևել	-673
ոնը	-674
քան	-675
▁—	-676
րկ	-677
մի	-678
▁շատ	-679
պրոց	-680
▁հաղ	-681
▁ցուց	-682
ավառ	-683
▁ընթացքում	-684
▁կայքում	-685
▁H	-686
▁Ժ	-687
▁ապր	-688
ահան	-689
րապետ	-690
իգ	-691
▁չի	-692
▁ամբողջ	-693
ակերպ	-694
▁նախագ	-695
իների	-696
▁Այն	-697
աշխ	-698
▁Երև	-699
▁հեղ	-700
▁ունեն	-701
▁F	-702
▁խորհրդ	-703
ոցի	-704
▁պատճառ	-705
▁համալս	-706
. 	-707
ոսկ	-708
▁նույն	-709
▁հավաք	-710
▁կոմ	-711
զբ	-712
ов	-713
▁դեմ	-714
▁բն	-715
տոր	-716
▁աս	-717
▁ընկեր	-718
▁դար	-719
եյս	-720
ch	-721
ст	-722
ատես	-723
ում՝	-724
▁E	-725
▁Գր	-726
ra	-727
կին	-728
ww	-729
ներն	-730
ասիր	-731
վա	-732
▁ձև	-733
▁գեր	-734
▁զբաղ	-735
▁որի	-736
▁իրավ	-737
▁–	-738
▁ֆուտբոլ	-739
եբ	-740
ատակ	-741
ոպ	-742
▁նահանգ	-743
ապատ	-744
▁անհ	-745
▁դպրոց	-746
▁Սփ	-747
▁of	-748
un	-749
ևոր	-750
▁բաժ	-751
▁W	-752
ստերոիդների	-753
▁մշակ	-754
▁Ը	-755
ովոր	-756
յուսիս	-757
ուգ	-758
▁գտնվում	-759
▁Առ	-760
աբար	-761
▁պատերազմ	-762
ոքր	-763
▁Ամերիկ	-764
ունակ	-765
▁թե	-766
առն	-767
ոհ	-768
▁մարզ	-769
il	-770
անական	-771
and	-772
▁դարի	-773
▁Համ	-774
▁Հար	-775
յանի	-776
▁դր	-777
▁հայտնի	-778
.,	-779
այց	-780
re	-781
▁գլխավոր	-782
▁անգամ	-783
իոն	-784
ՄՆ	-785
▁ընտանի	-786
ни	-787
▁մրցանակ	-788
▁կառուց	-789
տիվ	-790
անտ	-791
▁ավարտ	-792
կա	-793
իի	-794
▁սակայն	-795
▁Պիկ	-796
ենտ	-797
▁ճան	-798
▁անվան	-799
▁Տես	-800
▁Ստ	-801
▁Եվ	-802
ությանը	-803
▁տարի	-804
ունք	-805
եժ	-806
▁պետական	-807
ինը	-808
▁ալ	-809
ասն	-810
▁դեկ	-811
որեն	-812
▁ժողով	-813
▁իրենց	-814
▁սեպտեմբեր	-815
▁թվականից	-816
րային	-817
▁մասնակց	-818
▁▁▁▁	-819
անձ	-820
ск	-821
▁թող	-822
▁համակարգ	-823
ալիս	-824
▁Հայաստանի	-825
որձ	-826
▁ԱՄՆ	-827
▁բոլոր	-828
tion	-829
ոյեմ	-830
քս	-831
որտ	-832
▁կոչ	-833
▁սահման	-834
▁ունի	-835
▁Կիթ	-836
▁հետև	-837
ակայ	-838
երով	-839
▁կարգ	-840
ուդ	-841
▁Սփեյս	-842
ուոչ	-843
▁Սփեյսուոչ	-844
▁դերասան	-845
▁խմբ	-846
ра	-847
աստանում	-848
իկական	-849
▁տեղի	-850
▁թագ	-851
ոլոգ	-852
▁մասն	-853
▁պայման	-854
ավել	-855
նչ	-856
ահատ	-857
ուժ	-858
երից	-859
▁ազգային	-860
▁կազմակերպ	-861
կաց	-862
▁ով	-863
եղեց	-864
ուրս	-865
ալով	-866
որի	-867
▁միայն	-868
եփ	-869
յակ	-870
վան	-871
▁բնակչ	-872
▁սկզբ	-873
արիչ	-874
ազոտ	-875
▁երաժ	-876
▁անձ	-877
▁առաջն	-878
▁զարգ	-879
քին	-880
▁բազմ	-881
▁օգոստ	-882
▁կյան	-883
▁տվյալներով	-884
▁ը	-885
▁նրանց	-886
▁քաղաքական	-887
ing	-888
կար	-889
▁ենթ	-890
▁Կար	-891
ությունն	-892
▁Ավ	-893
ig	-894
իլի	-895
րաժ	-896
ումնասիր	-897
եկան	-898
▁նոյեմ	-899
▁հոկտեմբեր	-900
▁Հան	-901
▁հաջ	-902
▁ընտր	-903
գի	-904
ov	-905
▁հակ	-906
▁որոնց	-907
▁չէ	-908
am	-909
ed	-910
ին՝	-911
на	-912
▁նշանակ	-913
Աստերոիդների	-914
եի	-915
ՍՀ	-916
քով	-917
st	-918
վի	-919
ակալ	-920
▁ֆիլմեր	-921
ստոն	-922
▁միջոց	-923
▁ծառ	-924
ումբ	-925
▁կառավար	-926
▁սովոր	-927
▁լավ	-928
ուսն	-929
երկ	-930
ուծ	-931
ro	-932
▁Այդ	-933
▁բայց	-934
իվանդ	-935
▁ընդուն	-936
▁երկր	-937
անկար	-938
▁իրական	-939
աձայն	-940
ևմտ	-941
ությունից	-942
▁ղ	-943
▁փորձ	-944
իճակ	-945
▁հաստ	-946
յանը	-947
նն	-948
իները	-949
▁գյուղեր	-950
▁(,	-951
դր	-952
բյուր	-953
ագետ	-954
երն	-955
կան	-956
▁համայն	-957
ատարակ	-958
յութ	-959
աճախ	-960
անից	-961
▁գավառ	-962
▁ձեռ	-963
ումների	-964
▁լին	-965
քներ	-966
երս	-967
▁հաղթ	-968
ent	-969
▁ուժ	-970
▁Իս	-971
ազգային	-972
րահ	-973
▁արժ	-974
»-	-975
▁վերաբեր	-976
եջ	-977
▁անուն	-978
▁հետազոտ	-979
▁հիմնադր	-980
▁վերջին	-981
▁ունեցել	-982
ունդ	-983
▁արվեստ	-984
▁V	-985
▁ամերիկ	-986
▁ղեկ	-987
▁փետր	-988
▁),	-989
երթ	-990
▁գոտ	-991
▁վարչ	-992
սիայի	-993
ևմտյան	-994
▁բար	-995
▁կեր	-996
▁մարմ	-997
▁շարժ	-998
▁երկար	-999
▁որն	-1000
▁հիվանդ	-1001
▁/	-1002
▁երկրորդ	-1003
▁the	-1004
▁աստերոիդ	-1005
▁с	-1006
▁ուղղ	-1007
▁ինքն	-1008
▁հանդիպ	-1009
վարի	-1010
▁նպ	-1011
▁նախագահ	-1012
րապետության	-1013
▁աշխատանք	-1014
▁տնտես	-1015
ուբ	-1016
ուրջ	-1017
ինա	-1018
▁ըստ	-1019
▁Անդ	-1020
▁տղ	-1021
քների	-1022
▁ազդ	-1023
▁դարձել	-1024
ուհի	-1025
ադարձ	-1026
▁ազատ	-1027
▁նահանգի	-1028
▁հաշ	-1029
պիսի	-1030
▁հայտնաբեր	-1031
▁երաժշտ	-1032
▁քան	-1033
▁հաստատ	-1034
ասխ	-1035
▁չեն	-1036
▁մայի	-1037
▁լեզ	-1038
▁թագավոր	-1039
▁մեկը	-1040
▁հրատարակ	-1041
եցնում	-1042
▁ղեկավար	-1043
մամբ	-1044
▁տեղափոխ	-1045
արավոր	-1046
կանց	-1047
▁փոքր	-1048
▁Երկ	-1049
▁Մեծ	-1050
ստիտ	-1051
▁Գեր	-1052
հանուր	-1053
արը	-1054
անիայի	-1055
▁հաճախ	-1056
եհ	-1057
աշխարհ	-1058
▁Աղ	-1059
▁կենտրոն	-1060
▁լուս	-1061
ամարդ	-1062
ակումբ	-1063
ույս	-1064
ac	-1065
▁и	-1066
▁հոգ	-1067
▁պահպան	-1068
▁մտ	-1069
▁աշխատել	-1070
քները	-1071
աֆ	-1072
▁հեռուստ	-1073
▁հեղինակ	-1074
▁գաղ	-1075
ությունում	-1076
▁ակումբ	-1077
ստիտուտ	-1078
ad	-1079
▁հայտ	-1080
ուլտ	-1081
մանը	-1082
▁ուսումնասիր	-1083
պեր	-1084
▁պատճառով	-1085
▁գրանց	-1086
ուրբ	-1087
▁Նրա	-1088
▁բեր	-1089
րե	-1090
▁պետք	-1091
▁ռուս	-1092
▁С	-1093
▁ինստիտուտ	-1094
ահար	-1095
▁պրո	-1096
▁պատկեր	-1097
իջ	-1098
▁p	-1099
▁ստեղծագործ	-1100
▁ֆուտբոլիստ	-1101
▁գրող	-1102
▁ռազմ	-1103
▁չափ	-1104
նելով	-1105
ենդ	-1106
բոմ	-1107
ումները	-1108
ուզ	-1109
▁Իտ	-1110
▁Պալ	-1111
▁թողարկ	-1112
▁ներառ	-1113
շխան	-1114
▁O	-1115
ht	-1116
րաստ	-1117
▁ընկ	-1118
եժիս	-1119
աների	-1120
րադ	-1121
▁աստղ	-1122
▁հարց	-1123
անուն	-1124
▁գն	-1125
▁Կենս	-1126
▁J	-1127
եշտ	-1128
ացավ	-1129
▁Պատմ	-1130
կմ	-1131
ատի	-1132
▁ստացել	-1133
մարդ	-1134
եմատ	-1135
▁համաձայն	-1136
ադեմ	-1137
▁Առաջ	-1138
▁հյուսիս	-1139
▁The	-1140
ականություն	-1141
լին	-1142
երբ	-1143
▁թանգ	-1144
▁հարավ	-1145
աստեղծ	-1146
▁Նոր	-1147
▁երեխ	-1148
եկտր	-1149
երգ	-1150
com	-1151
▁Իր	-1152
ատվ	-1153
ուցիչ	-1154
▁m	-1155
▁գործող	-1156
անջ	-1157
id	-1158
արանում	-1159
ախոս	-1160
անիշ	-1161
▁անկ	-1162
▁կայս	-1163
▁եկեղեց	-1164
աուն	-1165
ետի	-1166
ապարհ	-1167
▁and	-1168
ia	-1169
▁թթ	-1170
ունե	-1171
▁Ալեքս	-1172
▁կերպ	-1173
▁միջև	-1174
▁բառ	-1175
ահայտ	-1176
եխն	-1177
▁Վեր	-1178
▁անցկաց	-1179
ույթի	-1180
▁ամուսն	-1181
▁հեռավոր	-1182
ер	-1183
▁հուլ	-1184
աստան	-1185
▁պարտ	-1186
▁ակտիվ	-1187
▁խնդ	-1188
լանդ	-1189
▁նրանք	-1190
բան	-1191
▁առանձ	-1192
կի	-1193
ենը	-1194
ռն	-1195
նորհ	-1196
▁մասը	-1197
▁հնարավոր	-1198
▁Մար	-1199
Ու	-1200
▁М	-1201
▁շարք	-1202
▁մն	-1203
աշխարհային	-1204
▁K	-1205
ահամ	-1206
▁երեք	-1207
եժիսոր	-1208
▁նավ	-1209
ակներ	-1210
▁Ֆրանսիայի	-1211
▁կոն	-1212
▁զին	-1213
▁պաշտպան	-1214
անալ	-1215
▁պատրաստ	-1216
▁հասարակ	-1217
▁հանգ	-1218
▁ծառայ	-1219
▁п	-1220
▁դուրս	-1221
um	-1222
▁արձ	-1223
այլ	-1224
ter	-1225
վեցին	-1226
ոֆ	-1227
▁Բնակչությունը	-1228
▁Տար	-1229
▁միջազգային	-1230
▁հոր	-1231
ջին	-1232
ор	-1233
▁կիր	-1234
ագիտական	-1235
▁արտադր	-1236
▁զգ	-1237
▁Եվրոպ	-1238
ացնում	-1239
ie	-1240
ասի	-1241
անքի	-1242
▁էջ	-1243
os	-1244
▁ԽՍՀ	-1245
▁Կր	-1246
ենք	-1247
▁Կենսագրություն	-1248
▁վայր	-1249
la	-1250
▁գեղ	-1251
▁անվանում	-1252
իկայի	-1253
ականության	-1254
▁փոփ	-1255
▁առավել	-1256
▁տղամարդ	-1257
ասարդ	-1258
▁տարածք	-1259
▁ե	-1260
▁համալսարանի	-1261
▁գործիչ	-1262
րով	-1263
եսի	-1264
▁նոյեմբեր	-1265
ատոր	-1266
▁հայտարար	-1267
▁s	-1268
²։	-1269
ստոնիայի	-1270
նելու	-1271
ացված	-1272
ասխան	-1273
ածու	-1274
ակների	-1275
▁բանակ	-1276
▁տարեկան	-1277
▁Երևանի	-1278
ագրության	-1279
եան	-1280
ղզ	-1281
▁հուշ	-1282
▁Ց	-1283
նայ	-1284
դան	-1285
▁Մոսկ	-1286
ուրգ	-1287
▁կոր	-1288
ուրդ	-1289
րոն	-1290
▁ուշ	-1291
▁w	-1292
արտար	-1293
ոմար	-1294
ուխ	-1295
արձակ	-1296
թի	-1297
արանը	-1298
նա	-1299
▁մակ	-1300
▁օգոստոս	-1301
▁Աշխ	-1302
▁Բնակչության	-1303
▁դեկտեմբեր	-1304
▁նկարահան	-1305
▁սիր	-1306
ենական	-1307
▁թատր	-1308
եֆ	-1309
ագայում	-1310
▁Ճ	-1311
www	-1312
▁U	-1313
▁Բնակչություն	-1314
ոնդ	-1315
աթիվ	-1316
▁դեպքում	-1317
▁հազ	-1318
▁իշխան	-1319
▁de	-1320
ամարտ	-1321
ազան	-1322
ap	-1323
ль	-1324
իճան	-1325
ևի	-1326
ot	-1327
▁դեպի	-1328
ականների	-1329
եթե	-1330
▁ճանապարհ	-1331
▁դիտ	-1332
▁ակադեմ	-1333
но	-1334
ոջ	-1335
▁ալբոմ	-1336
ut	-1337
ոցիալ	-1338
▁լր	-1339
▁Կան	-1340
AT	-1341
▁()	-1342
▁in	-1343
▁քաղաքում	-1344
որս	-1345
▁Ազ	-1346
իկի	-1347
ետև	-1348
քերի	-1349
եմոն	-1350
II	-1351
▁Աստ	-1352
▁արագ	-1353
▁հանդիս	-1354
▁հիշ	-1355
Հայ	-1356
ագրական	-1357
▁գետի	-1358
▁ամբողջական	-1359
▁в	-1360
▁տալիս	-1361
▁պատերազմի	-1362
▁ազդեց	-1363
▁ժողովրդ	-1364
▁հունվար	-1365
▁միավոր	-1366
em	-1367
ation	-1368
▁Ֆիլմ	-1369
ուսակց	-1370
▁կն	-1371
▁նկարիչ	-1372
▁բժ	-1373
▁շնորհ	-1374
▁Պալոմար	-1375
▁լավագույն	-1376
▁նպատակ	-1377
▁հաշվ	-1378
▁գործունե	-1379
▁քաղաքի	-1380
▁հաջող	-1381
անս	-1382
▁քարտ	-1383
▁աջ	-1384
▁f	-1385
ույլ	-1386
րեց	-1387
▁զոր	-1388
▁հանդես	-1389
այից	-1390
ադիր	-1391
▁NE	-1392
▁ծնվել	-1393
▁կոդ	-1394
անր	-1395
ка	-1396
▁կայսր	-1397
▁գտնվող	-1398
▁Անգ	-1399
ua	-1400
աշար	-1401
աթի	-1402
▁փոփոխ	-1403
արվեստ	-1404
երիտ	-1405
▁կիրառ	-1406
▁բանաստեղծ	-1407
▁խմ	-1408
▁Ղ	-1409
▁համարվում	-1410
▁մանկ	-1411
վոր	-1412
▁շուրջ	-1413
▁հայր	-1414
ևելյան	-1415
▁դրամ	-1416
ers	-1417
իրի	-1418
▁NEAT	-1419
im	-1420
ոլի	-1421
▁նման	-1422
▁մարդկանց	-1423
ումից	-1424
արիեր	-1425
iv	-1426
▁Առաջին	-1427
ականի	-1428
▁փետրվար	-1429
▁Էլ	-1430
▁Մաուն	-1431
▁խտ	-1432
ելը	-1433
լիմ	-1434
▁դիմ	-1435
▁եզ	-1436
նամ	-1437
ен	-1438
վեր	-1439
▁քնն	-1440
ir	-1441
աճառ	-1442
ացող	-1443
▁հրապ	-1444
▁օրինակ	-1445
▁Գերմ	-1446
եկտ	-1447
▁ամս	-1448
▁ԽՍՀՄ	-1449
▁(«	-1450
▁Մաունթ	-1451
այական	-1452
աձև	-1453
op	-1454
գր	-1455
ոնում	-1456
վելով	-1457
▁Ֆրանսի	-1458
▁Արևմտյան	-1459
որհրդային	-1460
▁աշխարհի	-1461
ասկ	-1462
արին	-1463
▁Լեմոն	-1464
րատ	-1465
իտակ	-1466
▁ֆրան	-1467
▁կուսակց	-1468
▁ծրագր	-1469
▁սկսել	-1470
▁նախկին	-1471
ec	-1472
▁հատկ	-1473
▁մեկն	-1474
▁աճ	-1475
▁վիճակ	-1476
те	-1477
իբ	-1478
▁St	-1479
ռոմ	-1480
▁իմ	-1481
▁Ալեքսանդ	-1482
միր	-1483
թեր	-1484
արտարապետ	-1485
▁Ըստ	-1486
▁խոս	-1487
▁X	-1488
▁ապրիլ	-1489
▁ընդհանուր	-1490
▁դարձավ	-1491
պետ	-1492
▁հարաբեր	-1493
▁համաշխարհային	-1494
առնում	-1495
գոր	-1496
երտ	-1497
ությունը՝	-1498
Ար	-1499
▁բնակչության	-1500
անդակ	-1501
բյուրներ	-1502
▁մարդահամ	-1503
շան	-1504
▁բազմաթիվ	-1505
▁փաստ	-1506
ակատ	-1507
իներին	-1508
երիտասարդ	-1509
եմի	-1510
▁կապված	-1511
▁հրամ	-1512
▁Հանրապետության	-1513
▁մասնակցել	-1514
▁շարունակ	-1515
▁մատ	-1516
լավ	-1517
տնի	-1518
▁տն	-1519
նայած	-1520
▁Նիկ	-1521
իստական	-1522
og	-1523
ադատ	-1524
gov	-1525
▁դատ	-1526
▁Պատ	-1527
▁А	-1528
ողական	-1529
▁մարդահամարի	-1530
▁Ամերիկացի	-1531
▁միլի	-1532
▁ձայն	-1533
ֆես	-1534
ապահ	-1535
▁կրթ	-1536
▁հեր	-1537
▁թույլ	-1538
▁ճանաչ	-1539
▁տակ	-1540
ist	-1541
▁միջին	-1542
ովը	-1543
ողների	-1544
▁զարգացման	-1545
ունի	-1546
ավորված	-1547
▁տեղեկ	-1548
▁նյութ	-1549
▁բնակվում	-1550
ard	-1551
▁Երևան	-1552
▁ափ	-1553
ալիայի	-1554
▁է՝	-1555
ld	-1556
ոսը	-1557
▁թիմ	-1558
▁հայկական	-1559
ag	-1560
ро	-1561
աբանական	-1562
▁Հուն	-1563
սը	-1564
▁խաղում	-1565
ոճ	-1566
▁Պետ	-1567
ադի	-1568
▁c	-1569
ենտր	-1570
ստր	-1571
▁գյուղում	-1572
▁Բրիտ	-1573
եական	-1574
▁ավարտել	-1575
ոլոգիական	-1576
▁պատմության	-1577
քերը	-1578
▁մեդ	-1579
▁Նախ	-1580
Ռուս	-1581
▁In	-1582
▁Մոսկվ	-1583
րոշ	-1584
իկան	-1585
▁Պատմություն	-1586
ծի	-1587
▁պաշտոնական	-1588
ամանակ	-1589
▁տեխն	-1590
▁Ձ	-1591
▁հատված	-1592
եսը	-1593
▁երիտասարդ	-1594
ադար	-1595
▁Աբ	-1596
ли	-1597
▁միջոցով	-1598
▁Քաղաք	-1599
աղկ	-1600
ռչ	-1601
▁ստոր	-1602
one	-1603
գն	-1604
▁մակարդ	-1605
▁ռեժիսոր	-1606
ուի	-1607
ре	-1608
▁Հետ	-1609
ul	-1610
▁կատարել	-1611
որոշ	-1612
քային	-1613
▁սպան	-1614
▁լուսանկար	-1615
ատմամբ	-1616
▁ընդգ	-1617
ադրվել	-1618
ամեն	-1619
▁ուներ	-1620
ատեր	-1621
▁ազգ	-1622
▁Աղբյուրներ	-1623
▁Ակ	-1624
եշ	-1625
▁փող	-1626
▁արվեստի	-1627
▁հատուկ	-1628
▁նվիր	-1629
▁մայր	-1630
▁բաժան	-1631
տանգ	-1632
▁"	-1633
▁պատվ	-1634
od	-1635
▁Թուր	-1636
▁կիս	-1637
▁ֆուտբոլիստներ	-1638
ղթ	-1639
ացնել	-1640
▁նախարար	-1641
չի	-1642
եներ	-1643
▁հանձ	-1644
▁գիտությունների	-1645
եմպ	-1646
▁լայն	-1647
իման	-1648
▁խոր	-1649
▁Սակայն	-1650
րիկ	-1651
 —	-1652
▁Y	-1653
▁քանակ	-1654
▁Հայաստանում	-1655
ոշոր	-1656
▁նկատմամբ	-1657
նաս	-1658
▁կղզ	-1659
▁միաս	-1660
▁b	-1661
ուսի	-1662
ամի	-1663
ուպ	-1664
▁հիմնականում	-1665
▁եկել	-1666
▁այլն	-1667
ասրահ	-1668
ուրի	-1669
րին	-1670
ավորման	-1671
▁սր	-1672
▁կարևոր	-1673
արժ	-1674
▁պարզ	-1675
▁պրոֆես	-1676
▁դեռ	-1677
▁ապա	-1678
▁սոցիալ	-1679
աշն	-1680
▁В	-1681
▁ջրային	-1682
▁մոլոր	-1683
▁մյուս	-1684
▁դա	-1685
սպ	-1686
▁առաջարկ	-1687
անոց	-1688
▁հուշարձ	-1689
▁ՀՀ	-1690
ан	-1691
▁ունեցող	-1692
oc	-1693
▁Սկ	-1694
▁իրեն	-1695
այք	-1696
տում	-1697
▁եղբ	-1698
▁պահանջ	-1699
▁իրավունք	-1700
го	-1701
րաբ	-1702
▁գերման	-1703
ացումը	-1704
▁պաշտոն	-1705
ow	-1706
▁ճարտարապետ	-1707
▁մեղ	-1708
▁որդ	-1709
▁աստերոիդներ	-1710
իծ	-1711
ens	-1712
ատալ	-1713
▁գոյ	-1714
ընթաց	-1715
orld	-1716
ասար	-1717
).	-1718
▁մետ	-1719
▁▁▁▁▁▁▁▁	-1720
աներ	-1721
▁Հարավ	-1722
ri	-1723
քից	-1724
//	-1725
ադայի	-1726
▁առանց	-1727
▁գրել	-1728
ոդված	-1729
▁բնակավայրերի	-1730
▁հայտնաբերված	-1731
▁Գտն	-1732
▁հրաման	-1733
ութային	-1734
▁վեպ	-1735
ովան	-1736
▁բռն	-1737
▁Բել	-1738
ժմ	-1739
▁Գրականություն	-1740
▁մեր	-1741
▁վաճառ	-1742
ավորապես	-1743
▁Ջոն	-1744
▁ամերիկացի	-1745
▁խմբի	-1746
▁թարգ	-1747
ացիայի	-1748
▁մայիս	-1749
աքր	-1750
իլիս	-1751
▁ֆիզ	-1752
ուհետև	-1753
▁արք	-1754
▁սեփ	-1755
րայ	-1756
ացում	-1757
▁հաղորդ	-1758
▁խնդիր	-1759
▁ռազմական	-1760
▁Փարի	-1761
▁Օր	-1762
▁դեղ	-1763
▁ուղեծ	-1764
բեջ	-1765
▁կառուցված	-1766
▁տպ	-1767
իայում	-1768
▁ունենում	-1769
%-	-1770
տար	-1771
աշրջան	-1772
ստեղ	-1773
▁վարչական	-1774
▁ավանդ	-1775
▁խումբ	-1776
▁ցույց	-1777
▁վիր	-1778
▁հեռավորության	-1779
եին	-1780
▁տեսակ	-1781
▁Հյուսիս	-1782
▁գալիս	-1783
ар	-1784
▁կաթ	-1785
▁Գտնվում	-1786
..	-1787
▁առանձն	-1788
me	-1789
▁կարիեր	-1790
մտ	-1791
այտ	-1792
▁ծով	-1793
րաք	-1794
▁Խորհրդային	-1795
ay	-1796
ess	-1797
այթ	-1798
▁հոս	-1799
ամաս	-1800
▁հրապարակ	-1801
▁Սուրբ	-1802
ահով	-1803
▁թիվ	-1804
▁կենս	-1805
▁առև	-1806
կանում	-1807
լադ	-1808
tp	-1809
The	-1810
▁պտ	-1811
▁Մես	-1812
▁օպեր	-1813
▁ավել	-1814
▁կյանքի	-1815
▁Մարտ	-1816
արմ	-1817
ողներ	-1818
▁արդեն	-1819
▁բնակիչ	-1820
ле	-1821
իկոս	-1822
▁երաժշտական	-1823
ենկ	-1824
▁զբաղեցնում	-1825
▁արժան	-1826
տնում	-1827
▁տուն	-1828
▁այբ	-1829
ия	-1830
▁լեռն	-1831
ագն	-1832
ություններում	-1833
▁հող	-1834
արգև	-1835
ագիրը	-1836
ումի	-1837
▁ընդգրկ	-1838
▁Արեգ	-1839
քանչ	-1840
▁գավառում	-1841
▁նույնպես	-1842
ևմուտ	-1843
▁աշ	-1844
տը	-1845
ло	-1846
http	-1847
▁հարթ	-1848
ны	-1849
րաժեշտ	-1850
▁Նյու	-1851
▁լի	-1852
▁զոհ	-1853
իկա	-1854
իկը	-1855
://	-1856
▁Հով	-1857
▁բուժ	-1858
▁սար	-1859
▁Գերագույն	-1860
ce	-1861
▁կայք	-1862
դրբեջ	-1863
լան	-1864
▁դրա	-1865
րիտ	-1866
աքս	-1867
▁տեղափոխվել	-1868
▁սեպտեմբերի	-1869
las	-1870
▁Բար	-1871
▁արդյունքում	-1872
▁Վր	-1873
te	-1874
▁արգ	-1875
Ռուսաստանի	-1876
▁մարտի	-1877
ություններից	-1878
▁կարգով	-1879
▁ձեռք	-1880
ալու	-1881
իսին	-1882
▁տր	-1883
ութեան	-1884
▁ծագ	-1885
առանգ	-1886
▁հաջորդ	-1887
ակտ	-1888
ուլի	-1889
▁արտահայտ	-1890
շավ	-1891
▁անտ	-1892
ագա	-1893
▁a	-1894
իտալ	-1895
ացվել	-1896
▁որպեսզի	-1897
▁պր	-1898
երիալ	-1899
րափ	-1900
▁հին	-1901
▁դեկտեմբերի	-1902
▁միլիոն	-1903
▁մայիսի	-1904
▁խտությունը	-1905
եյն	-1906
▁հոդված	-1907
ou	-1908
▁Կառ	-1909
▁օգոստոսի	-1910
▁խոշոր	-1911
ցի	-1912
▁կարելի	-1913
▁Միջ	-1914
իլիսոփ	-1915
ֆիլմ	-1916
▁Կոմ	-1917
▁Հիմ	-1918
▁Իսպ	-1919
▁չէր	-1920
ски	-1921
րաքանչ	-1922
▁քար	-1923
▁ուր	-1924
▁սն	-1925
րաքանչյուր	-1926
ավորում	-1927
▁տվյալների	-1928
▁մակեր	-1929
▁հունվարի	-1930
ովսկի	-1931
տավ	-1932
անքը	-1933
▁ապահով	-1934
ign	-1935
▁մարմին	-1936
ետը	-1937
▁Նիկոլ	-1938
▁Ch	-1939
▁շքան	-1940
▁Անդերս	-1941
ակառ	-1942
▁К	-1943
▁Նրանք	-1944
ագրի	-1945
▁գեղարվեստ	-1946
▁ել	-1947
մատ	-1948
ուհիներ	-1949
▁կախ	-1950
ավարտ	-1951
աշրջանում	-1952
▁Ին	-1953
▁արբան	-1954
▁ֆրանսի	-1955
▁համապատ	-1956
▁П	-1957
▁,	-1958
OS	-1959
▁Մարի	-1960
▁սեփական	-1961
չական	-1962
SB	-1963
ույր	-1964
▁կոմուն	-1965
իզմ	-1966
▁Ալեքսանդր	-1967
ովիչ	-1968
ցեն	-1969
▁ուսան	-1970
մանի	-1971
▁կանանց	-1972
▁գրավ	-1973
▁օգտագործվում	-1974
▁թանգարան	-1975
վելու	-1976
▁Ռո	-1977
▁ոսկ	-1978
իկների	-1979
▁քաղաքից	-1980
անկյուն	-1981
ոնտ	-1982
ակիր	-1983
▁գավ	-1984
▁լուծ	-1985
պոզ	-1986
ինական	-1987
րիստ	-1988
▁հոկտեմբերի	-1989
պիսիք	-1990
▁Պր	-1991
▁ճակատ	-1992
NE	-1993
. —	-1994
▁հուլիսի	-1995
▁ոճ	-1996
▁վերադարձ	-1997
եմպիոն	-1998
անիայում	-1999
▁արդյունքները	-2000
▁մեդալ	-2001
▁Պար	-2002
▁հուշարձան	-2003
▁հանձն	-2004
▁տարվա	-2005
▁տիր	-2006
▁տրամ	-2007
▁այբբ	-2008
▁ամերիկյան	-2009
SBN	-2010
ևան	-2011
▁Էդ	-2012
▁իս	-2013
▁աղջ	-2014
▁հունիսի	-2015
Ուկրաինայի	-2016
▁էկ	-2017
▁այբբենական	-2018
▁կատարում	-2019
▁բժշ	-2020
▁թվականին՝	-2021
▁ժամանակակից	-2022
та	-2023
րափակ	-2024
ew	-2025
▁գործում	-2026
ենում	-2027
▁Աշխարհ	-2028
եթի	-2029
▁շին	-2030
ավայրը	-2031
իշտ	-2032
▁ինչը	-2033
▁ջր	-2034
▁շնորհիվ	-2035
▁Հյուսիսային	-2036
▁հազար	-2037
▁ատ	-2038
▁մոդ	-2039
▁՝	-2040
ко	-2041
▁վերաբերյալ	-2042
ացրել	-2043
че	-2044
▁միասին	-2045
▁արբանյակ	-2046
▁լինել	-2047
▁ախ	-2048
աշրջանի	-2049
▁վաղ	-2050
▁նշան	-2051
▁մրցանակի	-2052
ատեղ	-2053
und	-2054
ներ՝	-2055
ացիոն	-2056
▁Կոր	-2057
▁Մոսկվայի	-2058
▁վնաս	-2059
▁v	-2060
▁Կոն	-2061
▁տվյալներ	-2062
▁ներքին	-2063
▁կես	-2064
լոր	-2065
▁տնօր	-2066
ները՝	-2067
▁ենթարկ	-2068
▁դառնում	-2069
ub	-2070
▁հետևանք	-2071
նես	-2072
▁Ապ	-2073
▁թաղ	-2074
▁կատ	-2075
▁ինչպիսիք	-2076
▁մեթ	-2077
▁երկրի	-2078
▁Սմ	-2079
▁պայք	-2080
▁թվականը	-2081
ևս	-2082
նշ	-2083
ոլով	-2084
▁ապրիլի	-2085
▁ISBN	-2086
օրինակ	-2087
ախտ	-2088
ազիլ	-2089
աբնակ	-2090
րաֆ	-2091
բերտ	-2092
ճար	-2093
▁արտաքին	-2094
▁դիր	-2095
▁խմբեր	-2096
▁ջերմ	-2097
առատ	-2098
▁հետագայում	-2099
▁ֆիլմի	-2100
▁նվազ	-2101
▁Շվ	-2102
լիմպ	-2103
▁նոյեմբերի	-2104
▁լեռ	-2105
ունակում	-2106
ափն	-2107
ացիների	-2108
▁Անդերսոն	-2109
▁գիտական	-2110
▁խորհրդային	-2111
▁եվ	-2112
▁գաղափ	-2113
ացյալ	-2114
ian	-2115
չության	-2116
th	-2117
ցել	-2118
▁դե	-2119
▁ցեղ	-2120
▁տարածքում	-2121
▁ինստիտուտի	-2122
▁դառն	-2123
ընդ	-2124
.-	-2125
▁Սա	-2126
▁վիճ	-2127
▁կա	-2128
▁քարտեզ	-2129
▁երրորդ	-2130
աքրք	-2131
▁գրական	-2132
▁պալ	-2133
▁Հռոմ	-2134
▁չորս	-2135
▁զանգ	-2136
▁Տարած	-2137
ւմտ	-2138
ավեր	-2139
▁ժառանգ	-2140
▁Երկրորդ	-2141
▁Р	-2142
▁օգն	-2143
▁ընկերության	-2144
▁Ընդ	-2145
▁գում	-2146
▁Գլ	-2147
ab	-2148
ւմտահայ	-2149
վին	-2150
▁դրությամբ	-2151
▁Սպ	-2152
▁ակումբի	-2153
▁թվում	-2154
▁Յոր	-2155
▁դարում	-2156
ամյա	-2157
ապետական	-2158
▁կոչվում	-2159
net	-2160
ույտ	-2161
ինանս	-2162
▁Ամերիկյան	-2163
▁ոլոր	-2164
▁թուր	-2165
կր	-2166
▁պատկանում	-2167
աշկ	-2168
ահանդ	-2169
▁եղբայր	-2170
▁ընտանիքի	-2171
▁դիտարկ	-2172
▁ցանկը	-2173
բյ	-2174
▁որոնցից	-2175
ավետ	-2176
Բնակ	-2177
▁Անտ	-2178
▁դրանք	-2179
▁կենդան	-2180
▁պատմական	-2181
da	-2182
ավորվել	-2183
առակ	-2184
▁Իտալիայի	-2185
NEOS	-2186
▁հերոս	-2187
▁մարդու	-2188
▁տարիներին	-2189
Ան	-2190
▁աստիճան	-2191
▁թերթ	-2192
▁հանդիպում	-2193
▁на	-2194
ողության	-2195
▁հետազոտություն	-2196
▁ներառում	-2197
նող	-2198
▁գնահատ	-2199
▁լեզու	-2200
▁մասնակից	-2201
ти	-2202
ակով	-2203
▁Ar	-2204
▁ձախ	-2205
▁մեթոդ	-2206
իզմի	-2207
Ալ	-2208
▁մետր	-2209
եցրել	-2210
▁Ուս	-2211
time	-2212
▁Գրի	-2213
▁յու	-2214
▁սպիտակ	-2215
▁Էստոնիայի	-2216
▁անհրաժեշտ	-2217
▁էլեկտր	-2218
▁շեն	-2219
▁Հայկական	-2220
▁են՝	-2221
▁Մեսա	-2222
ill	-2223
ուստր	-2224
րախ	-2225
աշտոնական	-2226
▁Ման	-2227
▁տեղակայ	-2228
▁քննադատ	-2229
▁անկախ	-2230
▁ժողովրդական	-2231
միջ	-2232
▁հանրապետության	-2233
uk	-2234
աբաթ	-2235
ion	-2236
▁հասարակական	-2237
▁.	-2238
="	-2239
▁դիվ	-2240
▁Թուրքի	-2241
▁փիլիսոփ	-2242
▁Լա	-2243
▁աջակց	-2244
▁զինվոր	-2245
▁հանդիսանում	-2246
եոն	-2247
▁հիմնադրված	-2248
նվ	-2249
ско	-2250
▁մայ	-2251
ացվում	-2252
our	-2253
во	-2254
ակա	-2255
սեր	-2256
Էստոնիայի	-2257
▁Լեն	-2258
լերեն	-2259
▁Պոլ	-2260
▁հավաքականի	-2261
▁գրանցված	-2262
▁կանոն	-2263
▁ևս	-2264
▁դաշ	-2265
մար	-2266
▁դժ	-2267
▁աշխատանքի	-2268
ակերտ	-2269
▁ձեռն	-2270
աչափ	-2271
▁ովքեր	-2272
▁Օս	-2273
ine	-2274
▁world	-2275
▁պատմություն	-2276
ազանց	-2277
▁LO	-2278
ներգ	-2279
align	-2280
▁տվել	-2281
▁եթե	-2282
▁գնդ	-2283
SS	-2284
եալ	-2285
իլյ	-2286
ud	-2287
▁Վալ	-2288
▁փողոց	-2289
ովին	-2290
▁տնտեսական	-2291
▁պատասխան	-2292
):	-2293
▁նկարագր	-2294
▁գոտիները	-2295
▁ժամային	-2296
▁Աֆ	-2297
▁շահ	-2298
▁Եվրոպայի	-2299
▁LONEOS	-2300
իֆ	-2301
▁ներկայացուցիչ	-2302
ran	-2303
եմն	-2304
▁Վար	-2305
ակուլտ	-2306
▁արբանյակային	-2307
▁ստիպ	-2308
▁փետրվարի	-2309
▁о	-2310
▁մեն	-2311
ադրության	-2312
▁ստեղծել	-2313
որը	-2314
▁փուլ	-2315
▁միության	-2316
▁օրգ	-2317
▁թարգման	-2318
▁այնպես	-2319
▁հարձակ	-2320
ла	-2321
▁Երբ	-2322
րաժար	-2323
zone	-2324
կայի	-2325
մեն	-2326
▁բեմ	-2327
▁սեր	-2328
▁И	-2329
Բնակավայր	-2330
▁%	-2331
▁երև	-2332
▁Սթ	-2333
ko	-2334
▁գոլ	-2335
▁համապետական	-2336
▁հետևյալ	-2337
ատու	-2338
ագիտության	-2339
▁հինգ	-2340
▁արգել	-2341
▁ուղարկ	-2342
▁կարճ	-2343
▁Լյու	-2344
իդր	-2345
ци	-2346
▁գիր	-2347
▁թվականների	-2348
իպտ	-2349
▁Ռադայի	-2350
▁օբյ	-2351
timezone	-2352
▁worldtimezone	-2353
▁գործի	-2354
▁յուրաքանչյուր	-2355
да	-2356
▁շրջանների	-2357
▁մշակույթի	-2358
▁դրանց	-2359
ee	-2360
▁հարկ	-2361
▁երգչ	-2362
▁l	-2363
▁սովորել	-2364
▁Կլ	-2365
աժողով	-2366
ույթը	-2367
▁▁▁	-2368
ки	-2369
▁ակադեմիայի	-2370
անիզ	-2371
ne	-2372
աները	-2373
▁նախատես	-2374
▁Փարիզ	-2375
tic	-2376
ընկեր	-2377
▁կրկ	-2378
▁վերական	-2379
ազդ	-2380
▁ներկայացնում	-2381
ասը	-2382
▁Փոքր	-2383
թե	-2384
▁դոլ	-2385
▁ֆակուլտ	-2386
այով	-2387
ամենայն	-2388
▁նվիրված	-2389
▁լույս	-2390
ge	-2391
▁վան	-2392
ue	-2393
▁Կատալ	-2394
չություն	-2395
▁Գործ	-2396
»)	-2397
անա	-2398
▁նվաճ	-2399
▁հրաժար	-2400
est	-2401
▁Դաշն	-2402
ալը	-2403
նիկ	-2404
▁Մինչ	-2405
արում	-2406
▁Ֆր	-2407
ուամենայն	-2408
իտոր	-2409
▁An	-2410
all	-2411
▁ինտ	-2412
ուամենայնիվ	-2413
ություններին	-2414
▁Բացի	-2415
▁Բնակավայրը	-2416
րաքաղաք	-2417
▁Հարավային	-2418
ի՝	-2419
յուժ	-2420
▁քիչ	-2421
▁սոցիալական	-2422
▁ման	-2423
ինգլ	-2424
ովա	-2425
ոկտոր	-2426
▁շրջանավարտ	-2427
Եր	-2428
ունկ	-2429
▁կոմպոզ	-2430
▁վերահ	-2431
▁Գերմանիայի	-2432
▁համալսարան	-2433
անիա	-2434
де	-2435
▁դպրոցի	-2436
.։	-2437
արիայի	-2438
▁Ադրբեջ	-2439
սկու	-2440
▁անունով	-2441
▁Pr	-2442
արեն	-2443
▁համեմատ	-2444
▁Ռուսաստանում	-2445
▁ավտ	-2446
եչ	-2447
▁ավագ	-2448
▁ստեղծվել	-2449
ավարժ	-2450
▁ռուսական	-2451
▁բնակչությունը	-2452
▁Որ	-2453
ուլտֆիլմ	-2454
▁ցուցադր	-2455
եկն	-2456
բերգ	-2457
▁վերադ	-2458
▁հավասար	-2459
art	-2460
▁Վի	-2461
▁II	-2462
ավական	-2463
Հայաստանի	-2464
▁Նրանց	-2465
▁ամիս	-2466
▁փոխանց	-2467
▁ծնունդ	-2468
▁ֆինանս	-2469
▁հատկապես	-2470
▁տաճ	-2471
▁կազմի	-2472
եյմ	-2473
▁դերը	-2474
▁եւ	-2475
աբանության	-2476
▁Մահ	-2477
այել	-2478
ord	-2479
▁Վոլ	-2480
▁Նկար	-2481
▁անունը	-2482
քեն	-2483
▁եռ	-2484
▁Իտալի	-2485
▁վաստ	-2486
ոյում	-2487
▁օրեն	-2488
▁ներք	-2489
ունքի	-2490
այա	-2491
իմի	-2492
ենսկի	-2493
▁գծ	-2494
▁խորհրդի	-2495
եղեցին	-2496
▁դաշտ	-2497
▁կառույց	-2498
▁//	-2499
▁կնոջ	-2500
▁բջ	-2501
ասպ	-2502
▁լուսանկարներ	-2503
արն	-2504
լադիմ	-2505
▁կենտրոնի	-2506
▁ամրոց	-2507
իշկ	-2508
▁համայնք	-2509
մունք	-2510
ացիական	-2511
▁չեմպիոն	-2512
▁հեղափոխ	-2513
▁փոխարին	-2514
ուդի	-2515
▁քաղաքներ	-2516
վելի	-2517
▁տասն	-2518
▁Н	-2519
▁Սան	-2520
▁Տնտես	-2521
▁Լոնդ	-2522
ուհին	-2523
▁հաղթանակ	-2524
▁Ավստր	-2525
ity	-2526
որով	-2527
▁ֆիլմում	-2528
ատիվ	-2529
▁մարզում	-2530
▁Հնդ	-2531
▁Ծն	-2532
▁արժանացել	-2533
▁խաչ	-2534
րած	-2535
▁կենտրոնական	-2536
▁Un	-2537
▁իրար	-2538
▁պրոֆեսոր	-2539
▁մահացել	-2540
▁Հովհան	-2541
▁м	-2542
ագրությունը	-2543
▁n	-2544
▁հիման	-2545
▁Ազգային	-2546
ով՝	-2547
եզեր	-2548
ողի	-2549
▁վարկ	-2550
▁վերց	-2551
ագործակց	-2552
▁մայրաքաղաք	-2553
▁Արդ	-2554
▁կոդը	-2555
▁Չնայած	-2556
ber	-2557
▁Հեռ	-2558
ևէ	-2559
ոլդ	-2560
նդի	-2561
av	-2562
▁Ժողով	-2563
▁ապրում	-2564
աստիճան	-2565
որհուրդ	-2566
▁սկզբին	-2567
ախմբ	-2568
▁Եղ	-2569
վածք	-2570
այդ	-2571
րիստոն	-2572
ինսկի	-2573
▁Օլ	-2574
ափակ	-2575
▁համապատասխան	-2576
հատ	-2577
▁կազմել	-2578
▁հետաքրք	-2579
▁անդամներ	-2580
▁նկարահանվել	-2581
▁բարձրագույն	-2582
իգայի	-2583
եքստ	-2584
▁կուսակցության	-2585
▁տարր	-2586
ազգ	-2587
▁նվագ	-2588
▁կանգ	-2589
ավանդ	-2590
▁տեղակայված	-2591
▁զուգ	-2592
▁Դր	-2593
ակատար	-2594
▁www	-2595
▁որից	-2596
▁արդյունաբեր	-2597
▁աղբյուր	-2598
aps	-2599
ադրի	-2600
Բնակավայրերի	-2601
անշ	-2602
լով	-2603
պատ	-2604
▁որում	-2605
▁Միջին	-2606
▁ռես	-2607
▁օրը	-2608
գամ	-2609
▁երգը	-2610
աթեմատ	-2611
▁Մալ	-2612
▁շաբաթ	-2613
▁Միացյալ	-2614
▁օրվա	-2615
ասպան	-2616
▁հորիզ	-2617
▁հասց	-2618
▁Չին	-2619
▁Հա	-2620
▁Կամ	-2621
ph	-2622
▁[	-2623
դյուս	-2624
▁կառուցվել	-2625
ավիր	-2626
▁գետեր	-2627
ell	-2628
▁տան	-2629
▁քաղաքը	-2630
▁Նույն	-2631
ունը	-2632
▁Հոլ	-2633
ակն	-2634
▁Նով	-2635
արյան	-2636
▁դոկտոր	-2637
.)	-2638
до	-2639
յուզ	-2640
▁գրողներ	-2641
▁սև	-2642
ածկ	-2643
▁գործիչներ	-2644
րում	-2645
▁առաջնորդ	-2646
▁առողջ	-2647
rc	-2648
▁աշակերտ	-2649
▁շրջանակ	-2650
▁նպատակով	-2651
▁աշխատում	-2652
▁նախագծ	-2653
▁Ճապ	-2654
▁չոր	-2655
▁Կալ	-2656
ak	-2657
երձ	-2658
▁մշակութային	-2659
ok	-2660
▁այնպիսի	-2661
▁աստված	-2662
▁քարտեզներ	-2663
▁Լի	-2664
▁ռեսուրս	-2665
ախի	-2666
լիմպիական	-2667
▁զանգված	-2668
▁պնդ	-2669
▁ցած	-2670
▁ծովի	-2671
▁ողջ	-2672
երորդ	-2673
▁կանխ	-2674
▁Արտ	-2675
▁սկսեց	-2676
▁Ստեղծ	-2677
▁նույնիսկ	-2678
սել	-2679
ва	-2680
ետիկ	-2681
▁գրեթե	-2682
ադրում	-2683
▁ցուցահանդ	-2684
▁շրջանավարտներ	-2685
▁Մակ	-2686
▁Re	-2687
▁եզրափակ	-2688
rada	-2689
▁Կոլ	-2690
io	-2691
▁ձգ	-2692
րոպական	-2693
enko	-2694
▁Անգլի	-2695
▁Կիր	-2696
▁սցեն	-2697
▁համակարգի	-2698
այան	-2699
ողները	-2700
▁սովորաբար	-2701
ակները	-2702
ри	-2703
▁ունեցած	-2704
▁յ	-2705
ևելք	-2706
▁№	-2707
▁առավելագույն	-2708
▁ճնշ	-2709
▁գեղարվեստական	-2710
ուրգի	-2711
ումով	-2712
լադիմիր	-2713
անելի	-2714
ensus	-2715
▁կառավարության	-2716
▁դափն	-2717
▁Աշխատ	-2718
▁գիտնական	-2719
▁maps	-2720
▁մարդիկ	-2721
▁հնչ	-2722
▁հիշատակ	-2723
▁մեքեն	-2724
կային	-2725
իոնալ	-2726
որմ	-2727
▁uk	-2728
▁գյուղի	-2729
եքի	-2730
ոու	-2731
▁բրիտ	-2732
▁պահպանվել	-2733
▁ապրել	-2734
vlas	-2735
▁առանձին	-2736
vlasenko	-2737
▁ukrc	-2738
▁Կատալինա	-2739
▁ukrcensus	-2740
ամուտ	-2741
▁ֆուտբոլի	-2742
ասում	-2743
ակավոր	-2744
ատնտես	-2745
▁կայսրության	-2746
▁CSS	-2747
▁որոշակի	-2748
ոնին	-2749
▁ֆիլմը	-2750
▁ավազան	-2751
▁հեռուստատես	-2752
▁Քրիստ	-2753
▁հենց	-2754
▁սկսում	-2755
▁առաջնության	-2756
▁Դեր	-2757
լա	-2758
.:	-2759
▁Որոշ	-2760
եկիր	-2761
▁ձեռնարկ	-2762
▁մուտ	-2763
▁անտառ	-2764
▁Բալ	-2765
ել՝	-2766
▁այնուհետև	-2767
ամատ	-2768
▁թափ	-2769
իսը	-2770
աղկացած	-2771
▁ավազ	-2772
▁քաղ	-2773
▁նամ	-2774
ոնային	-2775
ացու	-2776
▁Մրց	-2777
ացիները	-2778
լեն	-2779
յակի	-2780
▁ներդր	-2781
▁Л	-2782
▁հերթ	-2783
▁խորհուրդ	-2784
ատիպ	-2785
▁տարեկ	-2786
շտական	-2787
▁Г	-2788
իրը	-2789
▁Մաս	-2790
▁թողարկվել	-2791
▁Մոն	-2792
▁Բրազիլ	-2793
սում	-2794
ատան	-2795
յուտ	-2796
▁ինդ	-2797
▁վերահսկ	-2798
▁հետևանքով	-2799
▁այնտեղ	-2800
▁բանկ	-2801
ագետներ	-2802
ոման	-2803
ից՝	-2804
եյի	-2805
▁հավաքական	-2806
նախ	-2807
▁նստ	-2808
▁Արց	-2809
▁Սմոլ	-2810
▁Համալս	-2811
րաշ	-2812
բոս	-2813
վարդ	-2814
▁պլ	-2815
▁հորիզոնական	-2816
▁աչ	-2817
▁Դաշնության	-2818
▁գիշ	-2819
▁պարգև	-2820
ft	-2821
▁թեր	-2822
ավալ	-2823
▁բերել	-2824
▁դափնեկիր	-2825
▁գործակալ	-2826
վեգ	-2827
▁անգլի	-2828
▁բնական	-2829
▁:	-2830
▁բավական	-2831
▁օգտագործում	-2832
▁միջն	-2833
▁եկեղեցու	-2834
լինի	-2835
▁հրամանատար	-2836
լամ	-2837
ет	-2838
արական	-2839
▁անմիջ	-2840
▁գրականության	-2841
▁նշանակում	-2842
▁եմ	-2843
րադի	-2844
▁բաղկացած	-2845
▁համագործակց	-2846
▁Վերջին	-2847
▁երգի	-2848
ևիչ	-2849
▁Դոն	-2850
▁կնք	-2851
▁մանկավարժ	-2852
▁խաղացել	-2853
ություններով	-2854
ևն	-2855
ատը	-2856
նից	-2857
ain	-2858
իեզեր	-2859
▁իտալ	-2860
անյան	-2861
յարդ	-2862
մանյան	-2863
ուհու	-2864
▁քաղաքային	-2865
▁ակն	-2866
▁գոյություն	-2867
▁Աստերոիդների	-2868
▁ծանր	-2869
ենն	-2870
▁ցուցանիշ	-2871
▁արշավ	-2872
ди	-2873
▁մտնում	-2874
▁սինգլ	-2875
▁Միլ	-2876
▁թռչ	-2877
▁Արևելյան	-2878
▁եկեղեցին	-2879
▁Al	-2880
▁գերեզ	-2881
▁հաշվով	-2882
ացիներ	-2883
▁Պատկեր	-2884
▁ 	-2885
▁կազմված	-2886
վագ	-2887
իդրոլոգիական	-2888
ինք	-2889
▁մոր	-2890
ադրել	-2891
▁Պետր	-2892
▁հոգեբ	-2893
աղի	-2894
▁ոստ	-2895
▁որով	-2896
▁Հանրապետ	-2897
▁սեռ	-2898
▁հայտնվել	-2899
▁Т	-2900
▁լինում	-2901
ութի	-2902
▁Բոր	-2903
ուներ	-2904
թն	-2905
▁լրագր	-2906
լուծ	-2907
Գր	-2908
▁աստիճ	-2909
▁Б	-2910
▁կրկին	-2911
ԱԿ	-2912
ուռ	-2913
▁դուստր	-2914
▁մասում	-2915
ոմի	-2916
▁օդ	-2917
▁Ամեն	-2918
այումս	-2919
uc	-2920
▁աշխարհում	-2921
ուչ	-2922
▁շքանշան	-2923
▁Հին	-2924
ունքը	-2925
▁այստեղ	-2926
▁տվյալները	-2927
քական	-2928
ish	-2929
▁Մոր	-2930
▁վր	-2931
▁Ներ	-2932
▁Հեր	-2933
▁հարակից	-2934
▁հսկ	-2935
▁Գյուղ	-2936
▁համալսարանում	-2937
ова	-2938
▁աշխատունակ	-2939
▁միակ	-2940
բի	-2941
դյուսեր	-2942
ուլղ	-2943
ևմուտք	-2944
ik	-2945
bo	-2946
ադաշտ	-2947
▁հագ	-2948
իկտոր	-2949
▁բժիշկ	-2950
▁արձակ	-2951
▁տարածված	-2952
▁բառարան	-2953
ացնելու	-2954
ովկ	-2955
▁թեկն	-2956
▁թատրոնի	-2957
իկներ	-2958
▁Սմոլենսկի	-2959
▁աստերոիդների	-2960
▁բաղ	-2961
▁Անձ	-2962
▁քիմ	-2963
▁փախ	-2964
▁կարծ	-2965
▁ծնունդներ	-2966
▁Հալ	-2967
ենտրոն	-2968
▁բնորոշ	-2969
▁սպեկտր	-2970
ագրել	-2971
▁հուլիս	-2972
ագրվել	-2973
▁Իվան	-2974
▁չնայած	-2975
▁Էր	-2976
не	-2977
▁հանր	-2978
▁Ֆիլ	-2979
▁ես	-2980
եղի	-2981
▁ձևավոր	-2982
▁լեզվ	-2983
ահոլով	-2984
▁հյուսիսային	-2985
▁որևէ	-2986
աժամանակ	-2987
ատում	-2988
▁Հայր	-2989
երու	-2990
▁երկրների	-2991
▁st	-2992
▁ցածր	-2993
▁դադար	-2994
▁գրադ	-2995
ուսը	-2996
ացույց	-2997
ադրություն	-2998
ացիան	-2999
անիզմ	-3000
▁ուժեղ	-3001
▁բժշկական	-3002
▁Եկ	-3003
if	-3004
անալով	-3005
▁դերասաններ	-3006
▁վերած	-3007
▁հայաբնակ	-3008
իչներ	-3009
որդի	-3010
▁Շրջ	-3011
ինո	-3012
▁արհ	-3013
▁ամենամ	-3014
ողարկ	-3015
նթ	-3016
▁իրադարձ	-3017
▁օգտագործել	-3018
ник	-3019
▁գործընթաց	-3020
▁ստանում	-3021
▁կտր	-3022
▁ընտանիքում	-3023
▁դոլար	-3024
ակար	-3025
ևը	-3026
▁բանակի	-3027
▁կախված	-3028
▁դպրոցում	-3029
▁Ավելի	-3030
▁պարբեր	-3031
▁հեռանում	-3032
ոլոգիան	-3033
Այ	-3034
▁զգալի	-3035
▁Օգ	-3036
▁Սեն	-3037
արթ	-3038
▁թատեր	-3039
իզբ	-3040
ալա	-3041
▁մետաղ	-3042
գը	-3043
▁նշել	-3044
▁ռեսուրսների	-3045
▁Հեն	-3046
▁Մատ	-3047
իսով	-3048
գամավոր	-3049
վադ	-3050
րես	-3051
ճի	-3052
եռնի	-3053
▁Խաչ	-3054
▁քանդակ	-3055
▁&	-3056
աղթ	-3057
▁New	-3058
▁դես	-3059
նտր	-3060
ight	-3061
▁գումար	-3062
▁նախատեսված	-3063
▁Դա	-3064
▁անգլերեն	-3065
▁En	-3066
▁Լեհ	-3067
▁Սամ	-3068
▁որին	-3069
▁Վիլ	-3070
▁վեց	-3071
▁հիմնված	-3072
▁ալի	-3073
սոն	-3074
▁Այնուամենայնիվ	-3075
▁անցել	-3076
▁բարդ	-3077
▁առևտր	-3078
ский	-3079
▁to	-3080
▁անվանումը	-3081
▁по	-3082
▁եղանակ	-3083
եկց	-3084
▁հյուր	-3085
▁աստերոիդը	-3086
ագրում	-3087
▁ընդունվել	-3088
▁Թոմ	-3089
▁խանգ	-3090
▁դատար	-3091
ունկց	-3092
▁դի	-3093
▁ստանալ	-3094
▁բաժանում	-3095
▁անցնում	-3096
▁մոտենում	-3097
▁Հայտն	-3098
▁անվանակ	-3099
իստներ	-3100
սկին	-3101
▁շուկ	-3102
▁հիմնադիր	-3103
ահաս	-3104
նային	-3105
եմիեր	-3106
ագաթ	-3107
▁Կապ	-3108
Պաշտոնական	-3109
▁Նահանգ	-3110
▁Հակ	-3111
ոնների	-3112
▁ռադի	-3113
ոներ	-3114
ip	-3115
▁հարված	-3116
▁երկրներում	-3117
▁Ինչ	-3118
▁վիլ	-3119
▁տնօրեն	-3120
▁Բլ	-3121
▁դժվար	-3122
си	-3123
▁կարծի	-3124
ստամբ	-3125
▁համատեղ	-3126
▁Սև	-3127
▁այժմ	-3128
ալդ	-3129
ուրը	-3130
▁Իսպանիայի	-3131
▁այցել	-3132
▁երկրամ	-3133
▁խփ	-3134
ма	-3135
իկները	-3136
▁սխ	-3137
▁հանց	-3138
▁հայտարարել	-3139
▁գեներ	-3140
աշտպան	-3141
▁Միխ	-3142
▁բացահայտ	-3143
ադիտ	-3144
▁Գետի	-3145
▁Պատկերասրահ	-3146
ստի	-3147
▁Ադ	-3148
▁Վլադիմիր	-3149
ack	-3150
▁հավաքածու	-3151
▁Աս	-3152
վեն	-3153
▁կոմիտ	-3154
ելյան	-3155
ուտով	-3156
▁Որպես	-3157
▁դերասանուհի	-3158
▁Ժողովրդ	-3159
ork	-3160
▁գավառի	-3161
աստի	-3162
▁բույս	-3163
ort	-3164
▁մեխ	-3165
սին	-3166
▁Գրիգոր	-3167
▁կյանք	-3168
orm	-3169
▁դասեր	-3170
▁գործունեության	-3171
▁կարմիր	-3172
որջ	-3173
▁պատգամավոր	-3174
▁Հնդկ	-3175
▁Վրաստանի	-3176
▁հնարավորություն	-3177
▁h	-3178
տան	-3179
▁երկաթ	-3180
ակերգ	-3181
ողը	-3182
▁փրկ	-3183
▁տրան	-3184
աշխատ	-3185
▁գալ	-3186
ԽՍՀ	-3187
ամիջ	-3188
▁Խաղ	-3189
▁հետաքրքր	-3190
ур	-3191
▁որոշում	-3192
աբանություն	-3193
ինդ	-3194
արների	-3195
▁մոդել	-3196
ակային	-3197
▁հակառակ	-3198
րիդ	-3199
ապարտ	-3200
ոնիայի	-3201
տել	-3202
▁ցանց	-3203
▁հեռուստաս	-3204
▁երեխաների	-3205
▁փակ	-3206
eb	-3207
▁խումբը	-3208
▁Սալ	-3209
զոր	-3210
▁կոմպոզիտոր	-3211
եյց	-3212
▁Թուրքիայի	-3213
ածին	-3214
ավարար	-3215
ոհան	-3216
տանիշ	-3217
▁գոտու	-3218
▁խաղացող	-3219
ատական	-3220
քը՝	-3221
▁տեր	-3222
▁արևմտյան	-3223
նակի	-3224
▁համալ	-3225
▁քրիստոն	-3226
▁զբաղվել	-3227
▁Պետերբ	-3228
▁արար	-3229
ска	-3230
▁արժեք	-3231
▁գոտում	-3232
▁երբեմն	-3233
▁Բաշկ	-3234
▁արձան	-3235
▁Եգ	-3236
ազարդ	-3237
։ 	-3238
▁Ուսումնասիր	-3239
ib	-3240
ունից	-3241
▁գերեզման	-3242
▁Հիմն	-3243
▁կառավարման	-3244
▁բացառ	-3245
ми	-3246
ob	-3247
▁սկսած	-3248
▁համայնքի	-3249
▁Լու	-3250
▁էներգ	-3251
ուկի	-3252
▁Ռոստ	-3253
իչը	-3254
եցնել	-3255
տես	-3256
Ավ	-3257
▁ծանոթ	-3258
▁վարձ	-3259
▁Բրազիլիայի	-3260
▁վերան	-3261
երային	-3262
▁Աստված	-3263
▁արծ	-3264
▁ելույթ	-3265
ենտին	-3266
ավի	-3267
թան	-3268
▁տոն	-3269
▁վճար	-3270
ալիֆ	-3271
▁այգ	-3272
ագահ	-3273
ory	-3274
րեյ	-3275
ուտեն	-3276
ant	-3277
▁աստղագիտական	-3278
▁մնաց	-3279
▁Մարկ	-3280
▁անվտանգ	-3281
ivers	-3282
ահեղ	-3283
▁ոչնչ	-3284
▁ներկայացված	-3285
ավան	-3286
եդեր	-3287
▁ուժերի	-3288
▁թիվը	-3289
ոլեջ	-3290
ացան	-3291
ասական	-3292
▁վիլայ	-3293
▁մրցաշար	-3294
▁քաղց	-3295
ոլիկ	-3296
то	-3297
▁սպեկտրալ	-3298
▁ցուցահանդես	-3299
ոյան	-3300
▁Իսրայ	-3301
▁դու	-3302
բուրգ	-3303
▁սկսվել	-3304
▁Գալ	-3305
▁բլ	-3306
▁Համալսարանի	-3307
▁Գոր	-3308
▁Հարց	-3309
▁հեռավորությունը	-3310
▁մոլորակների	-3311
▁ուրիշ	-3312
ստրի	-3313
▁վաստակավոր	-3314
▁տեղը	-3315
ond	-3316
▁մուլտֆիլմ	-3317
▁արագությամբ	-3318
յում	-3319
▁Դի	-3320
xt	-3321
▁կետ	-3322
տոն	-3323
▁օգտագործվել	-3324
ազն	-3325
ոստան	-3326
▁դրամատ	-3327
▁մաթեմատ	-3328
▁համաձայն՝	-3329
▁պայմանագիր	-3330
▁սառ	-3331
վկ	-3332
▁եվրոպական	-3333
▁պաշտպանության	-3334
▁ոտ	-3335
▁Արեգակի	-3336
ակազմ	-3337
▁ունեցավ	-3338
▁հարավային	-3339
▁իսպան	-3340
▁րոպ	-3341
фи	-3342
ազոր	-3343
▁հասել	-3344
▁Անվան	-3345
ովկա	-3346
▁տեղեկատվ	-3347
▁հատորով	-3348
▁դասակարգ	-3349
յուժե	-3350
▁ծածկ	-3351
▁գերմանական	-3352
▁մարմիններ	-3353
▁Թագ	-3354
ադրված	-3355
▁զբոս	-3356
▁Հայտնաբեր	-3357
▁տարիների	-3358
աքար	-3359
▁հրավիր	-3360
▁գրանցամատ	-3361
▁տառ	-3362
▁Մարդ	-3363
▁դրոշ	-3364
ացիա	-3365
պիսով	-3366
▁ընտանիքներ	-3367
▁Սիլ	-3368
ոնգ	-3369
▁Mar	-3370
▁ծայր	-3371
▁Com	-3372
▁երկարությունը	-3373
ջել	-3374
▁ուսուց	-3375
▁կոմունա	-3376
▁դպրոցը	-3377
▁սեն	-3378
▁տեքստ	-3379
▁Սերգ	-3380
իլյամ	-3381
▁ամենամեծ	-3382
▁Տնտեսություն	-3383
up	-3384
աքանակ	-3385
ff	-3386
աստանը	-3387
▁ընտրվել	-3388
անունների	-3389
▁սմ	-3390
▁։	-3391
▁առարկ	-3392
yle	-3393
▁Յու	-3394
ավորել	-3395
▁իմաստ	-3396
гра	-3397
▁կարգավ	-3398
քերում	-3399
ich	-3400
▁ֆրանսիական	-3401
յանց	-3402
▁նկատ	-3403
▁խավար	-3404
▁g	-3405
▁Ֆիլմեր	-3406
ադրվում	-3407
▁ոստիկան	-3408
▁Վիկտոր	-3409
▁զբաղեցրել	-3410
ակր	-3411
▁Բեն	-3412
▁թվում՝	-3413
▁Լև	-3414
արա	-3415
▁Բաշկորտ	-3416
▁ապրանք	-3417
▁e	-3418
▁դեսպան	-3419
▁Էմ	-3420
▁գրված	-3421
▁Հետագայում	-3422
▁նպաստ	-3423
ամաք	-3424
▁երաժիշտ	-3425
▁ուղեծրի	-3426
▁ստիպված	-3427
▁թեկնածու	-3428
▁Սիմ	-3429
fr	-3430
բր	-3431
ադրությունը	-3432
▁բալ	-3433
իպալ	-3434
▁Անգլ	-3435
եվ	-3436
"|	-3437
ազատ	-3438
▁եկեղեցի	-3439
▁պայմանավորված	-3440
▁միջինում	-3441
▁Եգիպտ	-3442
▁ապստամբ	-3443
աա	-3444
▁Իտալիայում	-3445
սեն	-3446
▁գրանցամատյանի	-3447
▁ընկերությունը	-3448
▁տեղական	-3449
▁բարձ	-3450
▁բնութ	-3451
▁եթ	-3452
▁հեռուստա	-3453
ահանում	-3454
▁սերի	-3455
թուր	-3456
ստեր	-3457
▁Д	-3458
▁տիեզեր	-3459
▁շինարար	-3460
▁վիլայեթի	-3461
▁տարածքը	-3462
▁քաղաքացիական	-3463
կո	-3464
ազի	-3465
ry	-3466
հայ	-3467
▁թվականներին՝	-3468
▁ուղղված	-3469
▁հաղթել	-3470
ունիցիպալ	-3471
աբեկ	-3472
▁թիմի	-3473
▁ինդեքս	-3474
▁Վարդ	-3475
▁Mus	-3476
▁պտույտ	-3477
▁Գիտ	-3478
▁աշխատանքը	-3479
▁դեռևս	-3480
▁դեբ	-3481
▁համարում	-3482
▁գործերի	-3483
▁հասնում	-3484
▁Գերման	-3485
▁ճակատամարտ	-3486
րույց	-3487
▁ընկած	-3488
▁Ժամանակ	-3489
լայն	-3490
▁դիտարկումները	-3491
▁արևելյան	-3492
իծը	-3493
ոկրատ	-3494
▁տերմ	-3495
▁վտանգ	-3496
▁պարունակում	-3497
▁գյուղատնտես	-3498
▁ժամանակի	-3499
▁հովան	-3500
end	-3501
անկտ	-3502
▁հայրը	-3503
ինգի	-3504
▁անվանակարգ	-3505
համ	-3506
▁on	-3507
▁միջավայր	-3508
▁քոլեջ	-3509
▁գավաթ	-3510
ial	-3511
արք	-3512
սկե	-3513
ай	-3514
▁սպաս	-3515
▁բացի	-3516
▁շարժման	-3517
▁Զբաղ	-3518
▁կազմակերպության	-3519
երբակալ	-3520
լո	-3521
շռ	-3522
▁տեղանունների	-3523
▁Դավ	-3524
▁հիթ	-3525
▁տարիներ	-3526
▁Հայտնաբերվել	-3527
ith	-3528
▁հանրապետ	-3529
▁քանակը	-3530
անյութ	-3531
ոստային	-3532
ականներ	-3533
խավոր	-3534
ասարակ	-3535
▁փորձում	-3536
▁ճշ	-3537
ումներից	-3538
▁մրցույթ	-3539
ություններն	-3540
▁Կի	-3541
անին	-3542
 -	-3543
▁к	-3544
▁պատմությունը	-3545
▁այնքան	-3546
▁տիպ	-3547
▁ասել	-3548
▁Մին	-3549
▁մղ	-3550
▁առավելագույնը	-3551
▁արքայ	-3552
▁կալ	-3553
▁Բաշկորտոստան	-3554
նակից	-3555
tur	-3556
ոդի	-3557
▁պի	-3558
▁Շվեդ	-3559
▁տև	-3560
վկիան	-3561
▁Ընդհանուր	-3562
▁for	-3563
▁Վաղ	-3564
▁լեգ	-3565
իք	-3566
▁առկա	-3567
▁Հայտնի	-3568
▁արհեստ	-3569
արներ	-3570
...	-3571
▁Ներկ	-3572
▁քույր	-3573
▁ընդունել	-3574
ary	-3575
за	-3576
▁առաք	-3577
▁Այստեղ	-3578
▁պո	-3579
ևնույն	-3580
▁թատրոն	-3581
▁Արեգակից	-3582
▁Հաջ	-3583
▁վերականգն	-3584
վե	-3585
ամին	-3586
կալ	-3587
ացին	-3588
▁ծաղ	-3589
▁Աստերոիդ	-3590
▁գյուղական	-3591
ովյան	-3592
▁տիտ	-3593
ev	-3594
ություն՝	-3595
▁արդյունավետ	-3596
▁տեսել	-3597
ավարի	-3598
նձ	-3599
լը	-3600
▁հոգևոր	-3601
▁Սիր	-3602
▁կյանքը	-3603
▁ում	-3604
եծրի	-3605
▁սկիզբ	-3606
▁բջիջ	-3607
▁Արե	-3608
▁իշխանության	-3609
հետ	-3610
ակցության	-3611
յոն	-3612
նան	-3613
ամիջոց	-3614
▁եզր	-3615
▁Այնուհետև	-3616
▁քառ	-3617
▁Վեն	-3618
լիկ	-3619
▁Ջորջ	-3620
րոմ	-3621
▁la	-3622
▁ավազանային	-3623
▁գերազանց	-3624
▁առանձնահատ	-3625
իթի	-3626
եոդ	-3627
ագծ	-3628
ուղեծրի	-3629
ուրկ	-3630
ականներին	-3631
ամենը	-3632
▁Մտնում	-3633
▁Կեդ	-3634
▁գեներալ	-3635
ինքն	-3636
▁տեսակի	-3637
▁պետության	-3638
արիստ	-3639
▁պապ	-3640
ռչակ	-3641
▁կենդ	-3642
mer	-3643
▁Կազմ	-3644
▁Ռոբերտ	-3645
ев	-3646
enter	-3647
անիկ	-3648
▁շարժվելով	-3649
▁Վաս	-3650
իտի	-3651
▁երաժշտության	-3652
▁Th	-3653
աններ	-3654
երկրային	-3655
ածրի	-3656
▁սահմանափակ	-3657
▁Կարմիր	-3658
▁Հովհաննես	-3659
ру	-3660
▁ուղեծրով	-3661
▁Հաուտեն	-3662
▁Ուր	-3663
▁Եթե	-3664
ния	-3665
▁մահից	-3666
▁ֆուտբոլային	-3667
ասեն	-3668
▁արտադրության	-3669
▁Մինչև	-3670
▁յուր	-3671
անների	-3672
▁պրոդյուսեր	-3673
▁ներքո	-3674
ողությունը	-3675
▁քաշ	-3676
▁բազ	-3677
▁Բեր	-3678
ակառուց	-3679
ang	-3680
ies	-3681
▁խավարածրի	-3682
qu	-3683
▁Կենտր	-3684
ment	-3685
ատուն	-3686
▁փառատ	-3687
▁վատ	-3688
▁խաղերի	-3689
եև	-3690
▁Ֆրանսիայում	-3691
Արե	-3692
▁ոգ	-3693
▁վարպետ	-3694
▁գաղտնի	-3695
▁հիմնադրվել	-3696
▁Չար	-3697
▁դիվան	-3698
ուսական	-3699
ek	-3700
դա	-3701
▁Ստեփ	-3702
▁ծախ	-3703
»),	-3704
լեր	-3705
ովո	-3706
▁▁▁▁▁▁▁▁▁▁▁▁▁▁▁▁	-3707
ռլանդ	-3708
▁հեռու	-3709
▁մահվան	-3710
▁Կոստ	-3711
▁նախագահի	-3712
ՈՒ	-3713
երը՝	-3714
ակայքում	-3715
▁Ուկրաին	-3716
վածքի	-3717
▁հարթությունները	-3718
▁ստացավ	-3719
▁ծառայության	-3720
▁Օրինակ	-3721
▁ֆունկց	-3722
▁հասարակության	-3723
▁դասավանդ	-3724
▁Պի	-3725
▁հանձնաժողով	-3726
ռանը	-3727
▁Գետ	-3728
ելուց	-3729
▁Աստերոիդի	-3730
° 	-3731
▁քարտուղ	-3732
ոլեկ	-3733
ահատված	-3734
ոտր	-3735
▁ներկ	-3736
▁Կեդրոն	-3737
▁ցանկացած	-3738
▁Նիկոլայ	-3739
իչների	-3740
▁խաղաղ	-3741
Արեւմտահայ	-3742
▁Արեւմտահայ	-3743
▁Հարցերու	-3744
Արեւմտահայաստանի	-3745
▁О	-3746
▁շտ	-3747
▁ող	-3748
ագրով	-3749
▁անի	-3750
այության	-3751
▁Միջազգային	-3752
▁քայլ	-3753
ջի	-3754
▁զույ	-3755
մա	-3756
քերթ	-3757
▁ցանկանում	-3758
▁ուսուցիչ	-3759
▁ձերբակալ	-3760
▁գնում	-3761
▁վերլուծ	-3762
▁խիստ	-3763
▁ներառյալ	-3764
րիգ	-3765
▁մնում	-3766
▁պատկերասրահ	-3767
▁Ադրբեջանի	-3768
րոք	-3769
▁ափին	-3770
իժ	-3771
▁ավտոմ	-3772
▁Չեխ	-3773
▁ճյուղ	-3774
▁բյուր	-3775
▁=	-3776
▁դին	-3777
▁Աթ	-3778
▁Ջեյմ	-3779
ung	-3780
որթ	-3781
▁մտած	-3782
ատրաստ	-3783
▁կորց	-3784
▁Z	-3785
մուշ	-3786
▁Տեր	-3787
▁զարդ	-3788
▁կեղծ	-3789
▁աստիճանի	-3790
▁զբաղվում	-3791
▁ած	-3792
▁հով	-3793
ոսյան	-3794
▁http	-3795
▁ամենա	-3796
հար	-3797
▁տեսահոլով	-3798
ate	-3799
ագրված	-3800
▁Օսմանյան	-3801
ont	-3802
կետ	-3803
▁մասնավորապես	-3804
man	-3805
աբոր	-3806
▁միաժամանակ	-3807
ախառն	-3808
▁Ամերիկայի	-3809
▁երեխան	-3810
ինց	-3811
▁ընդամենը	-3812
▁Bo	-3813
ien	-3814
▁ազդեցություն	-3815
az	-3816
▁դրան	-3817
▁հանք	-3818
▁հզոր	-3819
ational	-3820
ինյան	-3821
եդի	-3822
Երկ	-3823
▁ավեր	-3824
խի	-3825
ադրան	-3826
▁տարբերակ	-3827
▁Նորվեգ	-3828
ավագույն	-3829
▁Բայց	-3830
▁կրոնական	-3831
▁անմիջապես	-3832
▁Հայոց	-3833
▁Ինչպես	-3834
ատարած	-3835
▁դերասանուհիներ	-3836
▁տարեկանում	-3837
▁մնացած	-3838
եզի	-3839
▁վարչապետ	-3840
▁շրջանակներում	-3841
▁մանր	-3842
▁Մաք	-3843
▁սիմ	-3844
▁գահ	-3845
▁Univers	-3846
ոկալ	-3847
ind	-3848
▁աշխատանքները	-3849
▁առաջանում	-3850
▁սկզբում	-3851
▁կինը	-3852
▁Վին	-3853
▁մոլորակներ	-3854
▁նր	-3855
▁ենք	-3856
▁երգեր	-3857
ուան	-3858
▁անցկացրել	-3859
աթիռ	-3860
▁Համայն	-3861
▁Հավ	-3862
▁հոսում	-3863
▁Սանկտ	-3864
▁Սյուժե	-3865
▁Գեղ	-3866
▁թագավորական	-3867
▁հետագա	-3868
եմին	-3869
▁զինված	-3870
▁ազգանուն	-3871
▁գավաթի	-3872
▁Ատ	-3873
ացրեց	-3874
▁աստղադիտ	-3875
▁Անգլիայի	-3876
եա	-3877
▁հասակում	-3878
▁Տեղ	-3879
այիլ	-3880
ug	-3881
▁Արգ	-3882
ինթ	-3883
▁արյուն	-3884
▁հեռուստասերիալ	-3885
նակարգ	-3886
ve	-3887
▁բող	-3888
▁ծրագրի	-3889
չում	-3890
▁իրավունքների	-3891
rom	-3892
ելս	-3893
▁նշանակվել	-3894
▁գեղեց	-3895
▁Արդյուն	-3896
▁վառ	-3897
▁գրքի	-3898
▁պատմաբան	-3899
ենցի	-3900
▁ամուսնացել	-3901
ամպ	-3902
եկտի	-3903
▁մասնագիտ	-3904
▁Sp	-3905
▁Ծնվել	-3906
▁Պարգև	-3907
րեական	-3908
▁հարուստ	-3909
▁Պեր	-3910
▁ծննդ	-3911
ագրեր	-3912
Առ	-3913
▁Թագավոր	-3914
▁կանգն	-3915
▁արտիստ	-3916
▁г	-3917
сти	-3918
▁Այլ	-3919
▁դասական	-3920
ախմբի	-3921
▁մարմնի	-3922
▁յոթ	-3923
եյթ	-3924
▁Le	-3925
այս	-3926
▁դրս	-3927
▁Անվանված	-3928
▁բրիտանական	-3929
▁վերաբերում	-3930
ույթների	-3931
եցված	-3932
ածուն	-3933
▁Հանդ	-3934
ուների	-3935
▁առևտ	-3936
որտի	-3937
Համ	-3938
▁կրում	-3939
ust	-3940
▁Պլ	-3941
իաների	-3942
▁Իսկ	-3943
ովայի	-3944
▁դարպ	-3945
▁Հայաստան	-3946
▁ալբոմը	-3947
երկր	-3948
▁վիճակագրության	-3949
▁Լուս	-3950
▁հանցագործ	-3951
▁ժողովածու	-3952
▁Շատ	-3953
▁կարդ	-3954
▁ոսկե	-3955
ный	-3956
ոքի	-3957
▁ժամանակահատված	-3958
▁խանգար	-3959
▁մնացել	-3960
իչի	-3961
արատ	-3962
ուֆ	-3963
ունգ	-3964
▁բավականին	-3965
▁շերտ	-3966
▁ֆինանսական	-3967
▁ունենալ	-3968
ամասն	-3969
արկի	-3970
▁կռ	-3971
▁Եվրոպայում	-3972
որգ	-3973
իդի	-3974
ոյին	-3975
▁հայրենի	-3976
▁ասում	-3977
ումներով	-3978
ոտի	-3979
▁վերաբերել՝	-3980
▁Ղր	-3981
▁նախկինում	-3982
ос	-3983
կու	-3984
որտային	-3985
▁մարդկանցից	-3986
ոքս	-3987
▁կոչում	-3988
▁հասկաց	-3989
աժամ	-3990
դեմ	-3991
▁հռոմ	-3992
▁կոդ՝	-3993
ins	-3994
▁հնդ	-3995
▁Սարգ	-3996
▁բանտ	-3997
▁թոշ	-3998
▁արմատ	-3999
ская	-4000
ացուցիչ	-4001
▁պատկան	-4002
ագավառ	-4003
▁պնդում	-4004
▁Վերին	-4005
ite	-4006
▁օտար	-4007
պտ	-4008
իսկոպ	-4009
▁կարողանում	-4010
▁ամր	-4011
▁խոստ	-4012
ix	-4013
▁քանդակագործ	-4014
▁անբ	-4015
▁բերում	-4016
▁պրոֆեսիոնալ	-4017
▁ֆիզիկական	-4018
▁կարիերան	-4019
▁հունիս	-4020
form	-4021
ազար	-4022
▁օբյեկտ	-4023
▁շարունակում	-4024
ադարյան	-4025
▁բաժին	-4026
որտուգ	-4027
ադրանք	-4028
աբի	-4029
առային	-4030
▁Բուլղ	-4031
▁ընկալ	-4032
ոլիտ	-4033
▁անձնական	-4034
ագրվում	-4035
▁անդ	-4036
▁նախարարության	-4037
EE	-4038
▁հայտնաբերվել	-4039
▁Press	-4040
▁գլուխ	-4041
▁III	-4042
▁մասնավոր	-4043
▁արդյունք	-4044
▁Ժան	-4045
▁բրոն	-4046
▁արաբ	-4047
▁խաղի	-4048
▁շքանշ	-4049
▁շնչ	-4050
▁հովանավոր	-4051
▁ճառ	-4052
ոտլանդ	-4053
▁պայմաններում	-4054
ոե	-4055
iz	-4056
▁կայուն	-4057
ախոսային	-4058
▁ճանապարհին	-4059
▁Բեռ	-4060
սթ	-4061
վածներ	-4062
ռիչ	-4063
▁նախորդ	-4064
▁տիտղ	-4065
▁արտաս	-4066
ավարության	-4067
▁թանգարանի	-4068
▁փաստաթ	-4069
▁Ախ	-4070
▁կենտրոնը	-4071
▁դիման	-4072
ав	-4073
ast	-4074
ly	-4075
այժմ	-4076
շնամ	-4077
միտ	-4078
▁ՄԱԿ	-4079
▁պատճառներով	-4080
 –	-4081
▁հավանական	-4082
▁աքս	-4083
▁որդին	-4084
աբաժ	-4085
ян	-4086
▁մշտական	-4087
▁Կենտրոնական	-4088
▁Ռուսական	-4089
▁գիրքը	-4090
▁բնագավառ	-4091
▁էպ	-4092
▁թղթ	-4093
▁վերադարձել	-4094
▁մեկի	-4095
▁Բն	-4096
▁Վան	-4097
▁կտավ	-4098
▁Տր	-4099
ացնելով	-4100
▁շարունակել	-4101
▁Մեկ	-4102
աթե	-4103
▁by	-4104
▁Հունգ	-4105
▁տիրապետ	-4106
ние	-4107
▁Կին	-4108
արգար	-4109
▁առաջնությունում	-4110
ոլին	-4111
▁տոկ	-4112
▁քննարկ	-4113
▁ալբոմի	-4114
▁ջրի	-4115
▁օլիմպիական	-4116
▁եզրափակիչ	-4117
▁զոհվել	-4118
ապաշտպան	-4119
▁Սկզբ	-4120
▁առմամբ	-4121
ern	-4122
անման	-4123
եգործ	-4124
ելին	-4125
▁Բան	-4126
▁և՛	-4127
դանավ	-4128
երական	-4129
ագայթ	-4130
▁Սերգեյ	-4131
կած	-4132
▁հարմար	-4133
▁ասպ	-4134
▁Մրցանակ	-4135
▁Արաբ	-4136
▁ֆրանսիացի	-4137
▁տարբերություն	-4138
ավազ	-4139
▁խառն	-4140
▁ավանդական	-4141
Ֆրան	-4142
▁արյան	-4143
▁մատուց	-4144
▁ռեկ	-4145
▁ուղևոր	-4146
▁լք	-4147
▁նյարդ	-4148
ամշակ	-4149
▁գագաթ	-4150
▁գույն	-4151
ատև	-4152
▁տվեց	-4153
▁տարածքի	-4154
▁միշտ	-4155
.),	-4156
անթ	-4157
ward	-4158
Մի	-4159
▁դրսևոր	-4160
ելիս	-4161
▁փոր	-4162
արաններ	-4163
он	-4164
կության	-4165
▁թատերական	-4166
▁Ռոստովի	-4167
▁նշվում	-4168
▁դասախոս	-4169
▁Սովոր	-4170
մեռ	-4171
▁ինչի	-4172
▁ստեղծման	-4173
ong	-4174
▁Սեր	-4175
▁փոխարեն	-4176
իղ	-4177
Կար	-4178
ուկը	-4179
▁ցանկում	-4180
▁վախ	-4181
III	-4182
▁Սու	-4183
ire	-4184
▁գաղափար	-4185
▁Par	-4186
մն	-4187
▁մարմն	-4188
▁գով	-4189
▁չէին	-4190
աստիճ	-4191
▁նախաձ	-4192
▁նշում	-4193
▁կրթության	-4194
▁իջ	-4195
▁ճանապարհորդ	-4196
▁շրջանին	-4197
▁ահ	-4198
եպիսկոպ	-4199
▁սուր	-4200
▁կերպով	-4201
▁ընտանիքը	-4202
lish	-4203
▁մոտավորապես	-4204
▁հավան	-4205
▁համոզ	-4206
▁վերադառն	-4207
▁կրկն	-4208
▁Լեոն	-4209
▁վերջնական	-4210
▁ժողովուրդ	-4211
▁Ակումբ	-4212
▁լեզվի	-4213
▁Sh	-4214
▁Հենրի	-4215
▁Ֆիլիպ	-4216
ве	-4217
▁օվկիան	-4218
▁օրինակ՝	-4219
▁սեռական	-4220
տորոշ	-4221
▁ձևով	-4222
ide	-4223
▁մամ	-4224
▁համակարգը	-4225
▁պակ	-4226
▁սկսվում	-4227
ru	-4228
▁ասոցի	-4229
▁ֆեդեր	-4230
▁ական	-4231
▁б	-4232
▁Հիմնական	-4233
▁տեղակալ	-4234
NS	-4235
պանում	-4236
տիկ	-4237
ւն	-4238
▁Մարիա	-4239
▁գույ	-4240
▁կենտրոնում	-4241
▁Հակոբ	-4242
▁հանդեպ	-4243
մահ	-4244
▁Ուիլյամ	-4245
left	-4246
▁սկզբունք	-4247
▁ամուս	-4248
յուզանդ	-4249
▁մասի	-4250
▁էկրան	-4251
▁մակերես	-4252
▁ծավալ	-4253
ուալ	-4254
лог	-4255
ss	-4256
▁միմ	-4257
▁մասնակցում	-4258
▁բարձրության	-4259
▁Վիր	-4260
▁դառնալով	-4261
անացի	-4262
▁բաժնի	-4263
▁շփ	-4264
որդը	-4265
▁հայտնվում	-4266
▁համայնքներ	-4267
Հիդրոլոգիական	-4268
▁չար	-4269
ովետ	-4270
ամետ	-4271
▁Արցախի	-4272
ոնյան	-4273
եցկի	-4274
▁կարիերա	-4275
▁գիտության	-4276
▁միջոցառ	-4277
▁կառավարությունը	-4278
▁օրենս	-4279
▁Е	-4280
In	-4281
▁հանրային	-4282
ֆեր	-4283
իթառ	-4284
▁ասպետ	-4285
▁Տղ	-4286
թվ	-4287
կոն	-4288
▁գրքում	-4289
▁Հեղ	-4290
շի	-4291
ծն	-4292
▁եթեր	-4293
ացուց	-4294
▁գրավել	-4295
▁պարգևատր	-4296
ատների	-4297
ասկետ	-4298
▁ԳԱ	-4299
▁դրական	-4300
ՖԱ	-4301
▁ռե	-4302
▁արձագ	-4303
ունիցիպալիտ	-4304
եցի	-4305
դեռ	-4306
▁ընդլայն	-4307
▁Be	-4308
ագիտություն	-4309
աքնն	-4310
▁տալ	-4311
րանում	-4312
▁չուն	-4313
center	-4314
▁Կարիեր	-4315
▁սկսեցին	-4316
եցրեց	-4317
▁Մաքս	-4318
▁д	-4319
արևելք	-4320
▁ընկնում	-4321
զե	-4322
▁բիզ	-4323
ժի	-4324
▁դիզ	-4325
Հար	-4326
▁Կառլ	-4327
որն	-4328
ասկետբոլ	-4329
▁Մայ	-4330
▁նշանավոր	-4331
▁հերթին	-4332
▁Ֆրանսիացի	-4333
▁թշնամ	-4334
▁հռչակ	-4335
▁հյուս	-4336
▁տեսքով	-4337
ուք	-4338
▁օրոք	-4339
ախումբ	-4340
▁ցուցանիշը	-4341
լեյ	-4342
▁Շիր	-4343
ստահ	-4344
ովանդակ	-4345
▁Շվեյց	-4346
ուլյ	-4347
▁մայրը	-4348
աու	-4349
ная	-4350
▁կատակերգ	-4351
▁Գար	-4352
▁Անջել	-4353
▁э	-4354
▁մերժ	-4355
ասեր	-4356
վածքների	-4357
▁հեռուստատեսային	-4358
կենտրոն	-4359
▁պատմում	-4360
▁գործել	-4361
▁Հիմնադրվել	-4362
▁վիճակագրություն	-4363
▁բուժման	-4364
▁ճապ	-4365
▁հաստատել	-4366
ազրույց	-4367
ոկի	-4368
▁սովորական	-4369
ամտ	-4370
ասյան	-4371
ոգրաֆ	-4372
▁մշակույթ	-4373
▁շրջապատ	-4374
▁պաշար	-4375
գլ	-4376
ստանի	-4377
▁Դրանից	-4378
▁Թանգ	-4379
▁կատարվում	-4380
▁առանձնահատկ	-4381
▁անվանել	-4382
եքը	-4383
▁մլ	-4384
եում	-4385
▁հում	-4386
ավորումը	-4387
ազանի	-4388
▁Կանադ	-4389
▁սպառ	-4390
▁հագուստ	-4391
▁միմյանց	-4392
վեդ	-4393
▁գետն	-4394
ica	-4395
▁ռիսկ	-4396
ևելքում	-4397
▁քաղցկ	-4398
▁երիտասարդական	-4399
գեն	-4400
անն	-4401
պիսին	-4402
ագրերի	-4403
▁լինի	-4404
աղորդ	-4405
▁հեշտ	-4406
եքիաթ	-4407
▁դրամա	-4408
▁Գերմանիայում	-4409
▁համերգ	-4410
▁անվտանգության	-4411
▁պահին	-4412
▁բացատր	-4413
իքի	-4414
▁գործակալության	-4415
արաբ	-4416
пе	-4417
 °	-4418
▁պաշտոնը	-4419
▁թվաքանակ	-4420
▁You	-4421
ացնող	-4422
Նոր	-4423
▁Ներկայումս	-4424
ep	-4425
ինին	-4426
▁տարբերակը	-4427
ուել	-4428
▁փոքրիկ	-4429
աշարի	-4430
եթև	-4431
▁Bl	-4432
▁Հաջորդ	-4433
▁դատապարտ	-4434
olog	-4435
եգր	-4436
ումնական	-4437
ուլման	-4438
ost	-4439
▁հարևան	-4440
▁ջերմաստիճ	-4441
▁հի	-4442
▁միջնակարգ	-4443
▁Համաշխարհային	-4444
ատիկ	-4445
▁աշխատակից	-4446
ահանվել	-4447
աստիկ	-4448
ողություն	-4449
▁մանկական	-4450
գործ	-4451
▁խան	-4452
▁մեկնել	-4453
▁փայտ	-4454
▁ֆակուլտետ	-4455
▁ձկ	-4456
ահեռ	-4457
▁կենդանիների	-4458
ive	-4459
▁թատրոնում	-4460
▁Զբաղեցնում	-4461
▁առկայ	-4462
▁տանը	-4463
▁որդի	-4464
▁լիգայի	-4465
▁style	-4466
ասկած	-4467
▁Երկու	-4468
▁պատկերված	-4469
ատուր	-4470
լիի	-4471
▁Քաղաքի	-4472
▁Ռի	-4473
▁Խարկ	-4474
▁Մել	-4475
ուա	-4476
ների՝	-4477
▁կարծում	-4478
վածքը	-4479
▁ռեալ	-4480
▁լատ	-4481
▁լեյ	-4482
▁ինք	-4483
▁մեծամասն	-4484
▁ութ	-4485
այում՝	-4486
▁Փոստային	-4487
▁ներկայացրել	-4488
իոնի	-4489
▁որակ	-4490
ոնիա	-4491
վիլ	-4492
ուսափ	-4493
▁ինֆ	-4494
▁ինքը	-4495
▁պլան	-4496
▁հունական	-4497
▁սցենարիստ	-4498
սոնը	-4499
▁հիպ	-4500
▁т	-4501
▁ծառայել	-4502
iss	-4503
▁նկարիչներ	-4504
▁կանայք	-4505
▁Խոր	-4506
▁Մեքս	-4507
դը	-4508
▁Շահ	-4509
▁ճառագայթ	-4510
ah	-4511
▁առաջատար	-4512
▁Երևանում	-4513
▁շքանշանի	-4514
(),	-4515
▁երկաթուղ	-4516
արևմուտք	-4517
ear	-4518
▁թեման	-4519
▁փնտր	-4520
▁ստեղծված	-4521
ts	-4522
անային	-4523
▁Մայք	-4524
▁մրցաշրջանում	-4525
▁Պեչ	-4526
▁օդանավ	-4527
▁երեխա	-4528
ասխանում	-4529
երասան	-4530
▁ինքնավար	-4531
▁համալսարանը	-4532
tern	-4533
лов	-4534
ընտր	-4535
▁Լոս	-4536
▁Լենինգ	-4537
ենա	-4538
▁Ստեղծագործ	-4539
▁քանդ	-4540
▁ստուդ	-4541
▁Սահման	-4542
կամ	-4543
▁թեմ	-4544
▁թվով	-4545
▁պատվավոր	-4546
▁Հալեկ	-4547
ապատրաստ	-4548
ina	-4549
▁այսինքն	-4550
▁Դանի	-4551
ամերիկ	-4552
մայ	-4553
ավր	-4554
▁օժ	-4555
▁Բաք	-4556
ass	-4557
▁ուսումն	-4558
▁Հալեկալա	-4559
եո	-4560
▁տեսության	-4561
▁հայտարարեց	-4562
удо	-4563
ատիր	-4564
Ամ	-4565
▁Ջեյմս	-4566
առը	-4567
▁Աշ	-4568
գա	-4569
▁այսպես	-4570
▁հայերեն	-4571
▁Բրիտանական	-4572
▁Կոմուն	-4573
oh	-4574
▁Փարիզի	-4575
▁վարդ	-4576
տիվության	-4577
ус	-4578
▁ոլորտում	-4579
▁Երաժ	-4580
▁ճանաչում	-4581
▁գուն	-4582
▁Գլխավոր	-4583
▁սա	-4584
▁Pro	-4585
▁ՀԽՍՀ	-4586
▁ժողովրդի	-4587
▁հաղթող	-4588
յակը	-4589
▁տարբերվում	-4590
ավարական	-4591
▁չորրորդ	-4592
▁դաշն	-4593
▁Me	-4594
▁XI	-4595
▁Միր	-4596
▁բարեկ	-4597
▁վերին	-4598
▁բացակայ	-4599
▁Սյուն	-4600
sp	-4601
ադրամ	-4602
▁պաշտոնապես	-4603
սան	-4604
ore	-4605
ոռն	-4606
▁դեպքերում	-4607
▁նախաձեռն	-4608
▁դիվիզ	-4609
▁Ձեռ	-4610
▁սուրբ	-4611
org	-4612
▁հավել	-4613
NSEE	-4614
▁վտ	-4615
▁ուսանողներ	-4616
▁արդար	-4617
▁Բրիտանիայի	-4618
կով	-4619
քերով	-4620
▁իրավունքի	-4621
▁գործունեություն	-4622
▁օգտագործման	-4623
ier	-4624
▁քաղաքականության	-4625
շքերթ	-4626
▁հաշվարկ	-4627
ելական	-4628
▁մահացած	-4629
▁զինվորական	-4630
▁Կալիֆ	-4631
▁կիլ	-4632
▁ամենահ	-4633
▁տեսնում	-4634
ակին	-4635
▁նկարահանված	-4636
▁ազդեցությունը	-4637
ադրիչ	-4638
▁մարզիչ	-4639
ach	-4640
▁օգնությամբ	-4641
ամյակ	-4642
▁Մատեն	-4643
▁անձանց	-4644
ֆի	-4645
▁կրտ	-4646
▁Ֆիլմի	-4647
▁կայացած	-4648
▁զորքերի	-4649
▁եկավ	-4650
▁հնչյուն	-4651
ապտ	-4652
աջող	-4653
▁հարյուր	-4654
ոփառատ	-4655
▁վիպ	-4656
ացական	-4657
▁սեղ	-4658
▁թոշակառ	-4659
▁Չինաստանի	-4660
▁բացվել	-4661
St	-4662
▁La	-4663
արված	-4664
▁Եղել	-4665
▁տաք	-4666
ոկատ	-4667
▁թվականից՝	-4668
իմն	-4669
ann	-4670
▁University	-4671
րաձ	-4672
▁Լոնդոնի	-4673
▁ամսագրի	-4674
▁խմբագիր	-4675
les	-4676
▁Ասի	-4677
ագրման	-4678
▁վանք	-4679
իզմը	-4680
из	-4681
▁Ռիչ	-4682
удож	-4683
▁Կրասն	-4684
ин	-4685
իստների	-4686
▁Rec	-4687
▁Անձնական	-4688
ստակ	-4689
▁York	-4690
եյը	-4691
▁Ըն	-4692
▁լս	-4693
▁Հռոմի	-4694
եմբ	-4695
լերի	-4696
▁Սար	-4697
Ազ	-4698
▁թաք	-4699
վադեպ	-4700
▁նեղ	-4701
աբաշխ	-4702
▁պատրաստված	-4703
ելիք	-4704
▁վերականգ	-4705
▁գրվել	-4706
▁համայնքների	-4707
▁at	-4708
▁վարժ	-4709
իկին	-4710
ՊՀ	-4711
տեն	-4712
▁հաստատվել	-4713
▁ծախս	-4714
▁գրում	-4715
▁առաջացել	-4716
▁Ֆլոր	-4717
▁Ընտ	-4718
▁Գրան	-4719
սոնի	-4720
լիսի	-4721
անդի	-4722
▁նշված	-4723
▁համարը	-4724
▁աշակերտներ	-4725
▁տնտեսության	-4726
▁Լին	-4727
չափ	-4728
ոսին	-4729
րովինց	-4730
▁կինոփառատ	-4731
▁անաշխատ	-4732
▁պարունակ	-4733
▁հուշարձանների	-4734
▁տաղ	-4735
▁կարգավիճակ	-4736
ոմբ	-4737
▁Ինքն	-4738
▁թռչուն	-4739
▁ազդեցության	-4740
որգի	-4741
▁լիազոր	-4742
գրավ	-4743
▁Award	-4744
ֆիլ	-4745
ութիւն	-4746
չային	-4747
ացմանը	-4748
▁մոտեց	-4749
▁ՌԴ	-4750
ood	-4751
ենքի	-4752
▁մակերև	-4753
անաչ	-4754
▁թվականներ	-4755
▁օբյեկտի	-4756
▁բախ	-4757
դին	-4758
օգ	-4759
▁ծաղկ	-4760
▁Բոլ	-4761
կրտ	-4762
▁անիմ	-4763
եխնիկական	-4764
▁հոդվածներ	-4765
▁մասամբ	-4766
▁անընդ	-4767
text	-4768
▁Իմ	-4769
▁Էն	-4770
▁Ed	-4771
▁հասանելի	-4772
▁Նիկոլա	-4773
▁մմ	-4774
եկտիվ	-4775
кт	-4776
յուլ	-4777
կայիս	-4778
▁հետ՝	-4779
▁հրապար	-4780
▁մեկնաբան	-4781
▁սխալ	-4782
▁դիմաց	-4783
▁ուղղությամբ	-4784
▁նկարիչների	-4785
▁Մեդ	-4786
▁աղյուս	-4787
▁աշխատանքների	-4788
▁Ենթ	-4789
▁գրքեր	-4790
▁Եվրոպական	-4791
▁Sc	-4792
ոսում	-4793
վայի	-4794
▁ամբողջությամբ	-4795
▁կերպար	-4796
▁երգչուհի	-4797
գեր	-4798
▁Երկրի	-4799
▁վարակ	-4800
ll	-4801
առլ	-4802
▁մակարդակից	-4803
▁հայոց	-4804
▁քիմիական	-4805
ախմ	-4806
▁անհատական	-4807
▁հանդիպել	-4808
▁XV	-4809
▁կենդանի	-4810
▁շենք	-4811
աթթ	-4812
▁Գևոր	-4813
▁կիրառվում	-4814
▁քարտուղար	-4815
անցի	-4816
▁մերձ	-4817
անդարտ	-4818
▁նորից	-4819
▁անկյուն	-4820
ogra	-4821
▁թռիչ	-4822
▁թագավորության	-4823
պագ	-4824
▁նշանակություն	-4825
▁Գե	-4826
իստր	-4827
▁մուս	-4828
▁կիթառ	-4829
վաթ	-4830
ove	-4831
▁նետ	-4832
ոժ	-4833
ոզի	-4834
▁Ել	-4835
սլավ	-4836
▁х	-4837
▁Կովկ	-4838
ասիրական	-4839
Ոսկե	-4840
▁այլև	-4841
▁հիվանդանոց	-4842
▁ուղեկց	-4843
ct	-4844
ականությունը	-4845
ոմետր	-4846
▁Մոսկվայում	-4847
տոնի	-4848
▁մարդկային	-4849
վածքներ	-4850
▁ст	-4851
եյր	-4852
ախաղ	-4853
▁դերում	-4854
▁Համայնքի	-4855
ской	-4856
▁Նիդ	-4857
սկայա	-4858
une	-4859
արիա	-4860
▁սարք	-4861
▁գտնվել	-4862
▁ռոման	-4863
▁աչքի	-4864
թերց	-4865
օրյա	-4866
ace	-4867
խուժ	-4868
ապոլ	-4869
Ալեքս	-4870
▁Խարկովի	-4871
▁արտասահման	-4872
▁ճամբ	-4873
ագնաց	-4874
▁ֆիլմերի	-4875
▁վերջո	-4876
▁Քանի	-4877
▁կարի	-4878
▁կոչված	-4879
▁Մրցանակներ	-4880
▁կրճ	-4881
▁բարել	-4882
արբ	-4883
ևում	-4884
▁կոմիտեի	-4885
eng	-4886
▁Q	-4887
ous	-4888
ver	-4889
ույսի	-4890
▁նորմ	-4891
▁Օդ	-4892
▁կորպ	-4893
▁բր	-4894
անդր	-4895
բլ	-4896
▁про	-4897
▁գրողների	-4898
▁դիմանկար	-4899
ալից	-4900
ուվ	-4901
զում	-4902
քաղաք	-4903
աշին	-4904
▁Դրա	-4905
▁շուտով	-4906
▁պայքար	-4907
▁Լիգայի	-4908
▁Սանտ	-4909
▁r	-4910
ողներին	-4911
որբ	-4912
ուարդ	-4913
աստիայի	-4914
▁ծխ	-4915
▁օգնական	-4916
▁առաջացնում	-4917
▁Հունաստանի	-4918
▁վերն	-4919
ons	-4920
անե	-4921
▁վկայ	-4922
երպ	-4923
▁Իլ	-4924
ացոլ	-4925
▁րոպե	-4926
վոլ	-4927
▁դրանից	-4928
▁պատվիր	-4929
զր	-4930
ազուրկ	-4931
▁համար՝	-4932
▁ինքնաթիռ	-4933
▁բռ	-4934
▁վեպի	-4935
յակում	-4936
▁ոլորտ	-4937
մանիչ	-4938
▁ուսումնական	-4939
որա	-4940
արժան	-4941
անյանի	-4942
▁Տղամարդ	-4943
▁ազնվ	-4944
▁թուն	-4945
▁Դեմ	-4946
▁նավահանգ	-4947
▁Հայրենական	-4948
ՌԴ	-4949
▁բանից	-4950
▁հիվանդության	-4951
աշի	-4952
▁ձի	-4953
ականորեն	-4954
▁նկարներ	-4955
ումին	-4956
▁տեղամաս	-4957
ոնա	-4958
▁թր	-4959
այմ	-4960
▁Աֆրիկ	-4961
Սպ	-4962
▁ռուսերեն	-4963
▁գերմանացի	-4964
▁ճիշտ	-4965
▁հատվածում	-4966
▁երբեք	-4967
ат	-4968
րիխ	-4969
ականը	-4970
ասներ	-4971
▁երկրում	-4972
▁աշխատանքային	-4973
▁սրահ	-4974
աձգ	-4975
▁դափնեկիրներ	-4976
▁ре	-4977
▁Հատ	-4978
▁մակարդակի	-4979
▁und	-4980
▁Յորքի	-4981
▁կգ	-4982
▁Հոկ	-4983
▁մայիսին	-4984
▁գազ	-4985
մին	-4986
անտին	-4987
ամուտը	-4988
անիան	-4989
▁Միխայիլ	-4990
▁Ագ	-4991
▁Դեյ	-4992
▁կանաչ	-4993
սերեն	-4994
թը	-4995
▁ֆոն	-4996
▁ենթարկվել	-4997
▁դառնալ	-4998
▁համանուն	-4999
▁Ղազ	-5000
▁i	-5001
▁կինոդ	-5002
ans	-5003
ոնիկ	-5004
▁Պարգևներ	-5005
▁հունվարին	-5006
▁կոչվել	-5007
▁գաղութ	-5008
▁հստակ	-5009
ոբելյան	-5010
▁ճգն	-5011
▁լինելու	-5012
▁վերջում	-5013
age	-5014
▁աշտ	-5015
▁des	-5016
▁սոցի	-5017
per	-5018
▁տրանսպ	-5019
▁առևտրային	-5020
այնի	-5021
▁միտ	-5022
▁ներխուժ	-5023
▁հեռուստաալի	-5024
▁վավեր	-5025
ств	-5026
անշան	-5027
▁у	-5028
her	-5029
▁թուրքական	-5030
▁համախ	-5031
▁Տվյալ	-5032
▁ծովային	-5033
▁et	-5034
նիա	-5035
լե	-5036
▁ինժ	-5037
▁ընդգրկվել	-5038
▁Դրանք	-5039
▁ուտ	-5040
ԿԿ	-5041
▁վերակառուց	-5042
од	-5043
▁տեսակներ	-5044
▁Ավստրի	-5045
▁առջ	-5046
ուկային	-5047
ֆեկտ	-5048
▁վրա՝	-5049
▁վերադառնում	-5050
լիս	-5051
▁թեթև	-5052
стор	-5053
ure	-5054
▁Ավարտ	-5055
▁Sch	-5056
▁գործոն	-5057
ля	-5058
ского	-5059
▁Յան	-5060
ition	-5061
▁Յորք	-5062
ավորվում	-5063
▁բասկետբոլ	-5064
տա	-5065
▁De	-5066
ոզեֆ	-5067
առաջ	-5068
▁կլ	-5069
արսկի	-5070
▁Բարձր	-5071
եր՝	-5072
կարիչ	-5073
ուշի	-5074
▁արև	-5075
▁կլին	-5076
ock	-5077
աժան	-5078
աբուժ	-5079
ме	-5080
▁Եվր	-5081
▁Տարածքը	-5082
Ես	-5083
մել	-5084
▁%-	-5085
▁պահանջում	-5086
▁լճ	-5087
▁XX	-5088
ոլոգիայի	-5089
եփոխ	-5090
ис	-5091
▁Ֆին	-5092
▁Hist	-5093
ice	-5094
▁պատահ	-5095
▁գրասեն	-5096
▁կրթություն	-5097
նակազմ	-5098
էջ	-5099
▁Հել	-5100
▁երգիչ	-5101
րտ	-5102
ագում	-5103
▁Կուր	-5104
▁տեղում	-5105
▁ախտորոշ	-5106
▁բավարար	-5107
▁Մանկ	-5108
ևմուտքում	-5109
▁Ժամանակակից	-5110
որդների	-5111
▁Բաբ	-5112
ков	-5113
▁Ստոր	-5114
▁զբոսաշրջ	-5115
▁ստուդի	-5116
ical	-5117
▁Այսպիսով	-5118
▁թարգմանիչ	-5119
▁сай	-5120
pr	-5121
▁re	-5122
▁լեհ	-5123
▁ռեժ	-5124
▁դիրք	-5125
րինգ	-5126
անկարիչ	-5127
▁տոհ	-5128
▁արտացոլ	-5129
▁կասկած	-5130
che	-5131
▁հնագույն	-5132
իթը	-5133
▁անս	-5134
га	-5135
քսի	-5136
▁գրա	-5137
▁զուգահեռ	-5138
Ստ	-5139
եպիսկոպոս	-5140
եմը	-5141
▁Յուն	-5142
▁տեղեկություններ	-5143
▁+	-5144
ոկրատական	-5145
▁Te	-5146
▁Պետերբուրգի	-5147
▁սրբ	-5148
▁Մոսկվա	-5149
▁ուկրաին	-5150
▁հրատարակվել	-5151
▁Սոֆ	-5152
▁Պետական	-5153
▁արտադրան	-5154
▁Իտալ	-5155
▁շրջաններում	-5156
▁ստեղծում	-5157
▁պրեմիեր	-5158
▁տարածաշրջան	-5159
▁ծագում	-5160
▁Ph	-5161
▁եղեռնի	-5162
▁կղզիներ	-5163
▁չունի	-5164
▁նմուշ	-5165
▁մինչդեռ	-5166
▁Հր	-5167
▁Col	-5168
▁սերիալ	-5169
▁հազվադեպ	-5170
▁ճշգր	-5171
▁Х	-5172
▁անհայտ	-5173
▁շրջանը	-5174
ֆր	-5175
▁չափազանց	-5176
▁պրոց	-5177
▁կառուցել	-5178
▁տեխնիկական	-5179
▁Թում	-5180
▁Սերբ	-5181
աուլ	-5182
▁դեպարտ	-5183
▁Ավստրալի	-5184
▁մեդալակիր	-5185
▁խորհրդանիշ	-5186
▁ընդհան	-5187
▁դաշնային	-5188
▁Ունի	-5189
ոյական	-5190
▁երևույթ	-5191
▁ամենահայ	-5192
▁տղամարդկանց	-5193
▁քարոզ	-5194
ադրական	-5195
▁Թիֆ	-5196
▁ուղղակի	-5197
▁իշխ	-5198
▁վարկած	-5199
▁ներկայիս	-5200
▁պատրաստվում	-5201
out	-5202
▁կոմս	-5203
▁հանգամ	-5204
▁օդանավակայ	-5205
▁ֆիլմերում	-5206
▁Ալի	-5207
▁դարերում	-5208
▁գտնում	-5209
եզու	-5210
ной	-5211
▁կո	-5212
au	-5213
▁Լյուդ	-5214
▁լուրջ	-5215
▁из	-5216
;"|	-5217
ինգը	-5218
ատանը	-5219
▁Կիլ	-5220
▁Դվին	-5221
եսում	-5222
▁լրագրող	-5223
շարժ	-5224
▁հասնել	-5225
ածնի	-5226
փոփ	-5227
Եվ	-5228
▁կաթոլիկ	-5229
Վիճակ	-5230
արանների	-5231
▁ամռանը	-5232
տագործ	-5233
իկն	-5234
▁Էյ	-5235
Էլ	-5236
▁Տիգ	-5237
ավոտ	-5238
▁ախտ	-5239
▁տունը	-5240
▁Աշխատանք	-5241
▁Ֆիլմը	-5242
▁Նրան	-5243
▁խուսափ	-5244
▁որոշել	-5245
▁Իսպանիայում	-5246
▁վոկալ	-5247
sk	-5248
▁պրովինց	-5249
▁անգլիական	-5250
▁k	-5251
▁der	-5252
ma	-5253
աճյուղ	-5254
▁Record	-5255
▁Քար	-5256
արդյուն	-5257
ողմ	-5258
այժմ՝	-5259
սափ	-5260
▁լող	-5261
▁թողարկել	-5262
ովետական	-5263
▁մարտին	-5264
▁Փարիզում	-5265
ազրկ	-5266
▁տեխնոլոգիան	-5267
▁ներգրավ	-5268
▁թագավորի	-5269
ինալ	-5270
▁մեզ	-5271
▁արձագանք	-5272
իսական	-5273
իկոսներ	-5274
▁ժառանգության	-5275
▁վստահ	-5276
unt	-5277
ոլֆ	-5278
▁վարիչ	-5279
որոգ	-5280
ընկ	-5281
▁Նշ	-5282
ոմս	-5283
▁Ընտանի	-5284
▁Ф	-5285
▁արկած	-5286
▁տարում	-5287
▁Ռուբ	-5288
▁օղ	-5289
Լավագույն	-5290
▁կարողացել	-5291
▁աբ	-5292
▁երեկ	-5293
երլանդ	-5294
▁ամենաբ	-5295
▁քն	-5296
ուշակ	-5297
ապետի	-5298
▁շրջաններ	-5299
▁ընթերց	-5300
արկում	-5301
▁կրճատ	-5302
▁արդյունքը	-5303
ենդի	-5304
▁Ֆրանց	-5305
▁բացասական	-5306
▁ստեղծագործական	-5307
իքս	-5308
▁ավարտվել	-5309
▁նկարահանում	-5310
ամը	-5311
ուրույն	-5312
▁կայացել	-5313
▁Տոլ	-5314
▁ընդունում	-5315
արպ	-5316
▁World	-5317
▁Աննա	-5318
▁Ստր	-5319
▁Ռիչարդ	-5320
▁Նման	-5321
▁տրվում	-5322
ys	-5323
▁վարչության	-5324
▁Հեռախոսային	-5325
▁Համաձայն	-5326
▁աշխարհագրության	-5327
արարական	-5328
▁խնամ	-5329
եկտոր	-5330
▁Մերի	-5331
мен	-5332
▁դարպաս	-5333
▁հիմնադրումներ	-5334
▁գեն	-5335
ագետների	-5336
▁անում	-5337
ըր	-5338
արձակում	-5339
▁խտությունը՝	-5340
▁այսօր	-5341
тель	-5342
▁հորիզոնականը	-5343
ՆԹ	-5344
խտ	-5345
▁քրեական	-5346
An	-5347
Հայր	-5348
Տար	-5349
ըստ	-5350
բիլ	-5351
▁կամուրջ	-5352
▁Ինդ	-5353
▁հոկտեմբերին	-5354
▁տապ	-5355
аль	-5356
▁Սում	-5357
▁դեկտեմբերին	-5358
▁կինոդերասան	-5359
▁Միք	-5360
րամասն	-5361
▁լինելով	-5362
▁ցեղասպան	-5363
լանտ	-5364
eg	-5365
▁Սոցիալ	-5366
▁օգնել	-5367
ատակարար	-5368
ասուն	-5369
եսթ	-5370
▁միկ	-5371
ավորության	-5372
▁գիշեր	-5373
▁վիճակում	-5374
▁մազ	-5375
sh	-5376
▁Օլիմպիական	-5377
▁բանաստեղծներ	-5378
չին	-5379
▁Ռուսաստան	-5380
լերը	-5381
▁ապագա	-5382
▁Մեն	-5383
▁ունեին	-5384
▁հրաժարվել	-5385
▁Ֆրանկ	-5386
▁անասն	-5387
▁պակաս	-5388
▁օրգանիզմ	-5389
▁առևտրի	-5390
Մեծ	-5391
ագան	-5392
▁երկրպագ	-5393
▁երկրամասի	-5394
▁բարեփոխ	-5395
▁զորքերը	-5396
▁կողմում	-5397
BC	-5398
այռ	-5399
▁տեղափոխվեց	-5400
▁կատարվել	-5401
▁Ադամ	-5402
▁միլիարդ	-5403
▁կառույցներ	-5404
▁ներկայացվել	-5405
▁միջնադարյան	-5406
▁Դև	-5407
▁Խորհրդ	-5408
▁հայտնել	-5409
աստիարակ	-5410
իրք	-5411
▁գրաֆ	-5412
▁սեպտեմբերին	-5413
old	-5414
▁Սն	-5415
▁դրվագ	-5416
▁Մեր	-5417
անալու	-5418
▁Սել	-5419
▁հետո՝	-5420
▁ինստիտուտը	-5421
▁Քաղաքը	-5422
▁հոգեբան	-5423
▁ցուցաբեր	-5424
▁del	-5425
ոծ	-5426
արկը	-5427
աշղթ	-5428
խորհրդային	-5429
»)։	-5430
▁մագ	-5431
▁թեև	-5432
men	-5433
յոր	-5434
▁մենք	-5435
▁շենքը	-5436
▁իտալական	-5437
▁անաշխատունակ	-5438
▁երազ	-5439
▁տեղահանվել	-5440
ոնս	-5441
▁բանակը	-5442
արացի	-5443
▁Իսրայելի	-5444
▁Անվ	-5445
▁Մարտին	-5446
լզ	-5447
ton	-5448
▁ունակ	-5449
ոմին	-5450
Ջրային	-5451
մը	-5452
▁Դեպ	-5453
▁հունիսին	-5454
▁մոն	-5455
▁Արցախ	-5456
▁Արգենտին	-5457
յաց	-5458
▁ինձ	-5459
».	-5460
▁հեքիաթ	-5461
ումներին	-5462
աբրի	-5463
աման	-5464
ապնդ	-5465
▁Կրթ	-5466
եայի	-5467
ավուն	-5468
իտան	-5469
▁դը	-5470
թոն	-5471
▁Co	-5472
▁արդյունաբերական	-5473
ուրա	-5474
յուտը	-5475
▁սկզբնական	-5476
սն	-5477
▁Վիենն	-5478
▁հեղինակը	-5479
▁ռոք	-5480
▁անձն	-5481
▁ենթա	-5482
▁Իրանի	-5483
▁եկեղեցիներ	-5484
ահակ	-5485
ատին	-5486
▁ստուգ	-5487
▁ուժերը	-5488
▁Tim	-5489
դիմ	-5490
▁Հարություն	-5491
▁Ֆուտբոլ	-5492
քար	-5493
▁սննդ	-5494
▁շարքում	-5495
▁Իզ	-5496
▁ինքնուրույն	-5497
▁մակերեսը	-5498
▁Հնդկաստանի	-5499
▁կրծ	-5500
▁ստանդարտ	-5501
▁լրացուցիչ	-5502
▁հավանաբար	-5503
▁հարցազրույց	-5504
▁զույգ	-5505
▁այդպես	-5506
▁համապատասխանում	-5507
▁հաշվի	-5508
▁Արդյունքում	-5509
▁չհ	-5510
▁Հոգ	-5511
▁Պատերազմ	-5512
ժշ	-5513
▁Եկեղեց	-5514
▁արևելք	-5515
ոնիայում	-5516
միտրի	-5517
ետին	-5518
▁կրտսեր	-5519
իտա	-5520
ican	-5521
▁օգտագործումը	-5522
իկյան	-5523
▁խաղը	-5524
oll	-5525
իսյան	-5526
▁Օգոստ	-5527
▁գետը	-5528
ամյակի	-5529
▁Տղամարդկանց	-5530
ост	-5531
▁He	-5532
իպր	-5533
իաներ	-5534
▁տանում	-5535
▁աֆ	-5536
▁Գևորգ	-5537
▁սրտ	-5538
ամաքային	-5539
▁ապահովում	-5540
ժեք	-5541
▁մարդը	-5542
▁բռնությամբ	-5543
▁կայքը	-5544
▁ռեակց	-5545
▁ապրիլին	-5546
Վեր	-5547
▁սուլ	-5548
ատեսակ	-5549
ոգեն	-5550
▁կղզու	-5551
▁հեծ	-5552
▁Մադրի	-5553
▁խորհրդանշ	-5554
ևսկի	-5555
▁ինստիտուտում	-5556
▁Ղրիմի	-5557
▁Վարչական	-5558
արվեստի	-5559
ղի	-5560
այման	-5561
▁Էդուարդ	-5562
▁Բիլ	-5563
▁երգերի	-5564
▁աշխատանքներ	-5565
▁թանգարանը	-5566
▁Պահ	-5567
▁թանգարանում	-5568
տվյալ	-5569
▁Մասն	-5570
աբերանը	-5571
ուրայի	-5572
▁գլխավորությամբ	-5573
▁միաց	-5574
ևեռ	-5575
tit	-5576
▁Մամ	-5577
▁կոլ	-5578
▁լեռնային	-5579
▁կից	-5580
▁ղեկավարել	-5581
ովային	-5582
ograph	-5583
▁ադ	-5584
▁կրթական	-5585
que	-5586
▁պայքարի	-5587
▁ավարտելուց	-5588
▁դասավանդել	-5589
▁Մետ	-5590
▁Անդրե	-5591
▁նոյեմբերին	-5592
նջ	-5593
▁Դրանց	-5594
▁գեղանկար	-5595
▁го	-5596
▁անվանումները	-5597
Սուրբ	-5598
▁տնային	-5599
▁բնության	-5600
▁հակամարտ	-5601
ավը	-5602
ство	-5603
ևանի	-5604
▁պայթ	-5605
▁փորձել	-5606
▁Ալբ	-5607
▁գիրք	-5608
▁Սփրինգ	-5609
formation	-5610
▁հիմք	-5611
ծառ	-5612
▁գտել	-5613
ինամ	-5614
▁եղբոր	-5615
▁ոճով	-5616
▁խոհան	-5617
▁Աֆր	-5618
▁երկիր	-5619
▁Բելառ	-5620
▁փուլում	-5621
արգել	-5622
ակցությամբ	-5623
▁օգոստոսին	-5624
▁կատարած	-5625
▁զանգվածային	-5626
▁սկզբանե	-5627
▁ինժեներ	-5628
▁շրջագ	-5629
▁գրանցման	-5630
▁ընդգրկված	-5631
քատ	-5632
▁հռոմեական	-5633
▁Ֆիլմագրություն	-5634
կոր	-5635
▁բարելավ	-5636
▁Հիշ	-5637
▁մտել	-5638
▁մուսուլման	-5639
▁Ալբոմ	-5640
անոս	-5641
ննադատ	-5642
▁կոշ	-5643
▁իրենից	-5644
▁ահաբեկ	-5645
▁նյութերի	-5646
▁խնդիրների	-5647
ականները	-5648
li	-5649
▁միևնույն	-5650
ии	-5651
▁)	-5652
ենին	-5653
թնոլոր	-5654
▁արծաթե	-5655
Մարտ	-5656
▁իրավիճ	-5657
▁հանդիպման	-5658
▁հանձնաժողովի	-5659
▁թերակ	-5660
co	-5661
եքեն	-5662
▁Ռեյ	-5663
▁մտն	-5664
ալին	-5665
▁Նախագահ	-5666
իզի	-5667
▁Պապ	-5668
▁Մայր	-5669
▁Սեբ	-5670
▁դավ	-5671
▁հուլիսին	-5672
▁հավատ	-5673
▁Ակումբային	-5674
▁ստորին	-5675
▁Հեռուստ	-5676
Գրուն	-5677
ույժ	-5678
▁Սեմ	-5679
▁պատերազմը	-5680
▁հայերի	-5681
▁Պրեմիեր	-5682
▁մեկում	-5683
▁Արմ	-5684
արխ	-5685
na	-5686
ԵՖԱ	-5687
▁թուրք	-5688
▁ինդեքս՝	-5689
▁Զել	-5690
▁աստղադիտարան	-5691
▁Քր	-5692
▁Կոլումբ	-5693
▁նահանգում	-5694
▁Ro	-5695
ավորների	-5696
▁Սիլյա	-5697
▁ՈՒ	-5698
▁Բելգ	-5699
▁կիլոմետր	-5700
▁Ամուսն	-5701
▁գտնել	-5702
Գրունևել	-5703
▁գործընկեր	-5704
https	-5705
ափառ	-5706
▁անդամների	-5707
▁գրադարան	-5708
▁Բաղ	-5709
▁հրապարակում	-5710
▁իման	-5711
▁հեռարձակ	-5712
ետային	-5713
▁կարգի	-5714
▁բրոնզե	-5715
▁Կոստանդ	-5716
▁խոն	-5717
▁տեղադրված	-5718
սկար	-5719
▁Իռլանդ	-5720
▁Միության	-5721
▁հրատարակել	-5722
▁հաց	-5723
▁հատկանիշ	-5724
▁ժանր	-5725
սերվ	-5726
▁Ավետ	-5727
▁INSEE	-5728
ич	-5729
կիի	-5730
▁վեպը	-5731
ամարտի	-5732
▁Կոնստ	-5733
յո	-5734
▁թողել	-5735
ելսի	-5736
▁կոտ	-5737
▁հարձակվող	-5738
are	-5739
ний	-5740
▁ջրատ	-5741
▁Ջրային	-5742
▁դասընթաց	-5743
ոցը	-5744
▁նվաճել	-5745
եւ	-5746
▁with	-5747
▁ամենահայտնի	-5748
▁խմբերի	-5749
ес	-5750
об	-5751
աշրջանը	-5752
եգիպտ	-5753
▁ակումբը	-5754
▁մունիցիպալիտ	-5755
▁մանկավարժական	-5756
▁Music	-5757
de	-5758
▁լեզուն	-5759
չել	-5760
բիլիսի	-5761
▁գեղարվեստի	-5762
որֆ	-5763
▁անջ	-5764
▁այր	-5765
▁լիգ	-5766
▁հայաց	-5767
▁անգլիացի	-5768
ինն	-5769
▁գետային	-5770
Թողարկ	-5771
ազդեց	-5772
▁Br	-5773
երսի	-5774
ջային	-5775
▁էթ	-5776
ile	-5777
սկո	-5778
▁Սթիվ	-5779
▁Հն	-5780
▁Պաշտոնական	-5781
▁գոլի	-5782
▁ստանալու	-5783
▁զավ	-5784
աշինգ	-5785
▁կախարդ	-5786
▁կազմակերպել	-5787
▁լց	-5788
ick	-5789
▁%։	-5790
▁Պետերբուրգ	-5791
▁ճանաչվել	-5792
▁հետախ	-5793
արանական	-5794
BA	-5795
▁հոլ	-5796
▁մլն	-5797
ձի	-5798
▁Գետաբերանը	-5799
ուսաղ	-5800
▁համախտանիշ	-5801
▁պաշտպանել	-5802
կարող	-5803
▁չկա	-5804
▁սինթ	-5805
▁Մշակ	-5806
▁հետևում	-5807
▁արել	-5808
▁ջանք	-5809
▁կարծիքով	-5810
ամետրաժ	-5811
▁սիրում	-5812
▁վերջինս	-5813
▁բանակց	-5814
▁Լենինգրադի	-5815
▁Սուլ	-5816
▁ուղիղ	-5817
▁այլևս	-5818
▁Վիտ	-5819
▁Լեհաստանի	-5820
▁Records	-5821
▁առաջարկում	-5822
ner	-5823
▁նավատոր	-5824
▁կրակ	-5825
▁փետրվարին	-5826
▁Կոտ	-5827
▁հեն	-5828
ապահության	-5829
▁Ազգ	-5830
Ավազանի	-5831
ոնն	-5832
▁անվանակարգում	-5833
▁պատան	-5834
▁Ես	-5835
ամփ	-5836
▁մասնակցությամբ	-5837
▁գյուղատնտեսական	-5838
▁հիդրոլոգիական	-5839
ati	-5840
▁ко	-5841
▁թաղամաս	-5842
Վիճակագրության	-5843
ացիներին	-5844
▁օգնում	-5845
Աշխ	-5846
զրումի	-5847
ные	-5848
մունքը	-5849
▁ակումբում	-5850
իլա	-5851
▁Մոնտ	-5852
▁սննդի	-5853
ath	-5854
▁կատարված	-5855
▁Դերերում	-5856
▁ընդունված	-5857
արկել	-5858
▁մահը	-5859
արկության	-5860
▁Էկ	-5861
տավայի	-5862
▁ջրատնտես	-5863
ուկների	-5864
▁անվանափոխ	-5865
▁կաթող	-5866
▁հանդիսատես	-5867
վանից	-5868
▁կլիմ	-5869
▁Լե	-5870
▁դահ	-5871
ջը	-5872
անել	-5873
ատեսիլ	-5874
▁բաժանվում	-5875
▁y	-5876
▁Սայդ	-5877
▁Հովհանն	-5878
▁ձևավորվել	-5879
▁թոշակառուներ	-5880
▁խախտ	-5881
ջախ	-5882
▁իբր	-5883
ինան	-5884
ոուի	-5885
անքների	-5886
▁Ահ	-5887
▁ներկայ	-5888
▁գործառ	-5889
ասթ	-5890
▁որս	-5891
▁քվե	-5892
▁դիպ	-5893
յուկ	-5894
ом	-5895
▁ճարտարապետական	-5896
▁Սուր	-5897
▁Դեն	-5898
▁իսլամ	-5899
▁կորուստ	-5900
▁Ֆեր	-5901
▁հարստ	-5902
▁Բոլոր	-5903
▁ինչպիսին	-5904
▁փառ	-5905
▁Կոս	-5906
▁բաղադրիչ	-5907
▁տեղափոխվում	-5908
▁կինոյի	-5909
▁ինքնակ	-5910
▁վերջինիս	-5911
▁խոշորագույն	-5912
▁այց	-5913
▁Ասիայի	-5914
ումներում	-5915
▁երգիչներ	-5916
▁երկրա	-5917
▁անհետ	-5918
▁դել	-5919
տեր	-5920
▁Քեն	-5921
▁ավան	-5922
▁ֆերմ	-5923
▁en	-5924
▁Պորտուգ	-5925
▁ընդգրկում	-5926
lin	-5927
Ch	-5928
ոլեկուլ	-5929
▁հսկայական	-5930
▁Amer	-5931
▁ունենալով	-5932
▁թուլ	-5933
ատերին	-5934
ալուծ	-5935
▁Կարիերա	-5936
▁անձնակազմ	-5937
▁ամենաբարձր	-5938
▁արևմուտք	-5939
▁War	-5940
▁Շար	-5941
▁դերի	-5942
ռուց	-5943
▁զիջ	-5944
▁դադարեց	-5945
▁սպիտակուց	-5946
se	-5947
▁դաստիարակ	-5948
▁կինոն	-5949
▁կողմից՝	-5950
▁գրականություն	-5951
▁Ռոս	-5952
կայում	-5953
▁Բոս	-5954
▁Բորիս	-5955
▁Կայ	-5956
ույթները	-5957
բին	-5958
▁Արևել	-5959
▁միջավայրի	-5960
արարի	-5961
ավաք	-5962
▁նախնական	-5963
գենի	-5964
board	-5965
ark	-5966
▁Վրաստանում	-5967
▁ջրատնտեսային	-5968
վիդ	-5969
▁անվանվել	-5970
աբաններ	-5971
▁Ճապոնիայի	-5972
▁բողոք	-5973
մայի	-5974
▁Ռոբ	-5975
land	-5976
յայի	-5977
▁գերի	-5978
Աստ	-5979
▁անդրադ	-5980
▁պղ	-5981
▁տառապ	-5982
▁ուսումնասիրել	-5983
▁Կաթ	-5984
▁թանգարաններ	-5985
▁կինո	-5986
▁align	-5987
ավորական	-5988
▁առաջացման	-5989
по	-5990
▁փաստաթղթ	-5991
▁Շտ	-5992
▁Սի	-5993
արդի	-5994
որդին	-5995
▁Կարլ	-5996
պլ	-5997
▁աքսորի	-5998
▁իշխանությունը	-5999
չես	-6000
▁տպագրվել	-6001
ետա	-6002
▁լեռնաշղթ	-6003
▁ներմ	-6004
ապատկեր	-6005
ife	-6006
▁կուտ	-6007
նեն	-6008
իտը	-6009
to	-6010
sch	-6011
▁Բազմ	-6012
▁Սայդինգ	-6013
իչները	-6014
ного	-6015
▁դերակատար	-6016
ance	-6017
▁Երկար	-6018
▁վայրեր	-6019
▁դրամատուրգ	-6020
ой	-6021
▁'	-6022
▁ղեկավարությամբ	-6023
անապարհ	-6024
▁խանութ	-6025
▁ընթ	-6026
▁IV	-6027
ադրող	-6028
▁կարիերայի	-6029
ածն	-6030
▁սահ	-6031
▁Դել	-6032
▁կիսա	-6033
▁քառակ	-6034
▁Շոտլանդ	-6035
▁լաբոր	-6036
▁սկսվեց	-6037
▁սրտի	-6038
▁մասնաճյուղ	-6039
ովս	-6040
կուն	-6041
տանեկան	-6042
▁եգիպտ	-6043
ոլը	-6044
▁պատվին	-6045
▁անցկացրեց	-6046
▁գավառակում	-6047
ей	-6048
рат	-6049
▁Արագ	-6050
ավրի	-6051
կերի	-6052
ալեզու	-6053
որում	-6054
▁բովանդակ	-6055
ինների	-6056
ild	-6057
ույզ	-6058
▁Գոյ	-6059
մարտ	-6060
▁Գերմանացի	-6061
▁կապի	-6062
աշեն	-6063
▁Տարբեր	-6064
ծնվ	-6065
չենկ	-6066
▁Comp	-6067
եկի	-6068
կյան	-6069
▁համեմատաբար	-6070
▁Ֆրանսիական	-6071
ա՝	-6072
▁Սին	-6073
▁ենթադրում	-6074
▁Անգլիացի	-6075
iew	-6076
▁տերև	-6077
ակրթ	-6078
իկայում	-6079
▁խոսում	-6080
▁Ավարտել	-6081
▁պահպանել	-6082
pp	-6083
▁թև	-6084
անձն	-6085
▁հալ	-6086
▁պող	-6087
վելուց	-6088
▁պատճառը	-6089
ale	-6090
▁Արվեստ	-6091
▁լից	-6092
▁Յուրի	-6093
▁քանակությամբ	-6094
▁Ռոդ	-6095
գորոդի	-6096
▁ра	-6097
▁գրավում	-6098
▁հետապնդ	-6099
▁Հեղինակ	-6100
արային	-6101
▁Խոս	-6102
▁Պյ	-6103
▁ցուցադրվել	-6104
▁տոկոս	-6105
ահեղինակ	-6106
աշտոցի	-6107
▁Մարգար	-6108
удожник	-6109
▁էջը	-6110
▁մեխանիզմ	-6111
▁աղջիկ	-6112
ենդան	-6113
եթը	-6114
▁Սվ	-6115
▁մարտական	-6116
▁գործարար	-6117
րապնդ	-6118
▁շատերը	-6119
▁Լիտ	-6120
▁ж	-6121
կինի	-6122
illboard	-6123
▁առաջարկել	-6124
▁մրցաշրջանի	-6125
▁Ֆրիդ	-6126
որին	-6127
քերից	-6128
▁դեբյուտը	-6129
▁զարգացումը	-6130
▁կնքել	-6131
▁Էդվարդ	-6132
ենգ	-6133
▁ագր	-6134
▁գործած	-6135
իդա	-6136
▁Վայ	-6137
▁դաշնամ	-6138
▁կոնսերվ	-6139
▁կյանքում	-6140
ատորի	-6141
Ar	-6142
արման	-6143
▁Wh	-6144
▁ed	-6145
▁մագն	-6146
ոլոգիա	-6147
առության	-6148
▁Դմիտրի	-6149
▁from	-6150
ենտի	-6151
▁Լուկ	-6152
▁անձինք	-6153
▁սարսափ	-6154
▁գնդակ	-6155
▁պրեմիերան	-6156
▁բնույթ	-6157
▁ապացույց	-6158
եղն	-6159
▁Հիլ	-6160
ավայրի	-6161
▁համարել	-6162
▁ծննդյան	-6163
▁պատկանող	-6164
▁ադրբեջ	-6165
▁Թբիլիսի	-6166
▁խփել	-6167
▁Երուսաղ	-6168
▁Դար	-6169
▁Նորվեգիայի	-6170
ase	-6171
▁Э	-6172
մունքի	-6173
▁Stud	-6174
lic	-6175
▁ապացուց	-6176
▁Կանադայի	-6177
▁իրականացվում	-6178
▁մարզադաշտ	-6179
▁ատամ	-6180
բուրգի	-6181
▁Երրորդ	-6182
▁վիրահատ	-6183
▁գովազդ	-6184
▁ախտանիշ	-6185
▁համալիր	-6186
▁Կես	-6187
▁ակտիվները	-6188
▁ներմուծ	-6189
արկային	-6190
",	-6191
▁My	-6192
անները	-6193
նետ	-6194
▁պալատ	-6195
▁կլինի	-6196
▁կեսերին	-6197
▁ստորաբաժ	-6198
եճ	-6199
անան	-6200
ակայում	-6201
▁հրեական	-6202
▁հանգեցնում	-6203
▁Ուոլ	-6204
▁մակարդակը	-6205
▁պահեստ	-6206
այներ	-6207
▁տարին	-6208
ստական	-6209
▁Սարգս	-6210
▁բնագավառում	-6211
▁աշտարակ	-6212
լու	-6213
▁Այնտեղ	-6214
ных	-6215
սիա	-6216
Մարդ	-6217
ախմատ	-6218
▁Բրիտանիայում	-6219
▁օս	-6220
▁Մայքլ	-6221
ացվեց	-6222
▁ավարտից	-6223
▁Սք	-6224
▁առջև	-6225
▁աստիճանաբար	-6226
ոուն	-6227
▁Ապր	-6228
▁ստեղծելու	-6229
աբել	-6230
▁գին	-6231
▁Fran	-6232
▁а	-6233
ուտի	-6234
▁ընտանեկան	-6235
▁մարմինը	-6236
▁ժայռ	-6237
▁իտալացի	-6238
▁թոք	-6239
▁գնաց	-6240
▁հեղափոխության	-6241
▁մնալ	-6242
որոն	-6243
▁երթ	-6244
Իմ	-6245
ադա	-6246
աբույս	-6247
▁Լեյ	-6248
ron	-6249
▁քաղաքապետ	-6250
▁Կաստ	-6251
▁պատերազմից	-6252
ներում՝	-6253
▁ամրապնդ	-6254
ոռեժիսոր	-6255
▁Պոլտավայի	-6256
▁նամակ	-6257
▁կեսին	-6258
lo	-6259
▁գոլը	-6260
▁ֆակուլտետը	-6261
▁վիճակի	-6262
▁Նկարագրություն	-6263
իվը	-6264
▁աճում	-6265
▁Ազատ	-6266
▁նախապատրաստ	-6267
▁Սր	-6268
▁Շրջկենտրոն	-6269
▁Սումիի	-6270
▁իսկական	-6271
լենդ	-6272
▁գործադիր	-6273
▁վերադառնալ	-6274
▁ներառված	-6275
▁սպառն	-6276
▁Ка	-6277
▁հա	-6278
▁Հենց	-6279
յուռ	-6280
▁զեկ	-6281
▁նյութեր	-6282
▁Խմբ	-6283
▁ներսում	-6284
▁Կոբ	-6285
իցի	-6286
▁Ընկեր	-6287
▁դերասանական	-6288
▁նրանից	-6289
▁У	-6290
iet	-6291
▁Անհ	-6292
աշվ	-6293
ունտ	-6294
թիռ	-6295
▁գաղթ	-6296
▁հասկան	-6297
▁ենթարկվում	-6298
▁Հռոմեական	-6299
ավառակ	-6300
ամա	-6301
▁Հուշ	-6302
▁լեռան	-6303
▁բերեց	-6304
արժեք	-6305
▁Մատենադ	-6306
▁ստանալով	-6307
▁Քլ	-6308
▁գարն	-6309
▁տեսնել	-6310
ահետ	-6311
▁Ֆիզ	-6312
▁ոճի	-6313
son	-6314
ամորթ	-6315
▁Անդրեյ	-6316
▁էր՝	-6317
▁բուս	-6318
բերգի	-6319
▁Սպիտակ	-6320
▁միացել	-6321
▁թերակղզ	-6322
▁մթնոլոր	-6323
րաթ	-6324
ագի	-6325
անդաղ	-6326
▁ատոմ	-6327
▁ներկա	-6328
ընտ	-6329
▁Թոմաս	-6330
▁Առավել	-6331
արևելյան	-6332
ta	-6333
կապ	-6334
▁նախագծի	-6335
▁Ավստրալիայի	-6336
աշատ	-6337
▁թիմը	-6338
դեն	-6339
▁Տիր	-6340
▁աշխարհագրական	-6341
▁Երգ	-6342
▁երկիրը	-6343
▁էկոլոգիան	-6344
ոբուս	-6345
▁խաղերում	-6346
կերը	-6347
▁արտոն	-6348
յուջ	-6349
▁գաղափարը	-6350
ուպոլ	-6351
▁կրել	-6352
ակցությունը	-6353
▁ասոցիացիայի	-6354
իտոմ	-6355
▁զգաց	-6356
▁պաշտոնում	-6357
▁պարգևատրվել	-6358
▁ձմեռ	-6359
▁անցնել	-6360
▁Ռազմ	-6361
▁Նիդերլանդ	-6362
▁Մասնակ	-6363
▁ղեկավարում	-6364
▁մասնակիցներ	-6365
▁մկան	-6366
▁ավի	-6367
▁բարբ	-6368
ումային	-6369
▁Բուդ	-6370
որդները	-6371
▁ծրագիրը	-6372
ՄԿԿ	-6373
▁Իսպան	-6374
▁երկարությամբ	-6375
▁Ոչ	-6376
նց	-6377
ենզ	-6378
▁ծեր	-6379
▁Սեպ	-6380
▁օգտագործելով	-6381
▁կոկ	-6382
րոդ	-6383
▁ալբոմներ	-6384
▁աղքատ	-6385
▁յուղ	-6386
▁գիտնականներ	-6387
▁Յոհան	-6388
▁իրավաբանական	-6389
▁հավաքականում	-6390
▁տուր	-6391
▁քահան	-6392
eki	-6393
աթերթ	-6394
▁Վիճակ	-6395
»:	-6396
▁լեզվով	-6397
ón	-6398
▁ֆակուլտետի	-6399
СР	-6400
▁սպանել	-6401
ղզի	-6402
▁տարիքի	-6403
ере	-6404
եպի	-6405
▁Տիգրան	-6406
տո	-6407
▁Վել	-6408
▁Դեկ	-6409
▁դեբյուտ	-6410
▁Man	-6411
▁Վաշինգ	-6412
իկլ	-6413
▁սիրահար	-6414
▁նկարահանել	-6415
ուպեր	-6416
րահամ	-6417
▁Աֆրիկայի	-6418
▁անբավարար	-6419
Գլ	-6420
▁Con	-6421
ուդյան	-6422
▁ներկայումս	-6423
որան	-6424
▁Ռոզ	-6425
ternational	-6426
սից	-6427
▁Ավստրիայի	-6428
▁իսպանական	-6429
rans	-6430
▁կոնց	-6431
իլը	-6432
ավորումներ	-6433
▁աճի	-6434
▁Սկզբում	-6435
▁Cl	-6436
▁об	-6437
▁Օկ	-6438
▁նախընտր	-6439
եների	-6440
▁բարեկամ	-6441
▁արտակարգ	-6442
orn	-6443
▁սերմ	-6444
▁բիզնես	-6445
▁զարգացած	-6446
▁հասուն	-6447
▁քաղցկեղ	-6448
▁նկարը	-6449
▁խնդիրներ	-6450
▁այցելել	-6451
▁ընտանիք	-6452
▁անշարժ	-6453
▁Ակտիվության	-6454
▁մունիցիպալիտետ	-6455
▁Կառուց	-6456
▁ձևավորման	-6457
▁Գործազուրկ	-6458
որներ	-6459
▁Ցուց	-6460
▁իրականացնում	-6461
ris	-6462
արկման	-6463
▁պատասխանատու	-6464
▁պահպանման	-6465
▁ասպետներ	-6466
▁հավաքածուն	-6467
▁Աշխարհի	-6468
▁ֆրանսերեն	-6469
ագիծ	-6470
▁Յորքում	-6471
▁ընդդեմ	-6472
▁փոխանակ	-6473
▁պալատի	-6474
▁թվի	-6475
▁հատվածը	-6476
ros	-6477
▁շենքի	-6478
▁չունեն	-6479
▁Միս	-6480
▁կրկնակի	-6481
▁տիպի	-6482
▁բազմազան	-6483
▁պահպանում	-6484
▁պետությունների	-6485
իաները	-6486
▁կողմնակից	-6487
Հեռ	-6488
իրիժ	-6489
ացանկ	-6490
▁մասնակցելու	-6491
▁հիմքում	-6492
▁պրակտ	-6493
▁գրի	-6494
▁հավաքել	-6495
▁Պող	-6496
▁հղի	-6497
▁ժողովի	-6498
▁երաժշտություն	-6499
▁գեղեցիկ	-6500
ինակի	-6501
rid	-6502
եցման	-6503
▁հետազոտության	-6504
ви	-6505
int	-6506
անգամ	-6507
նայի	-6508
▁Անտոն	-6509
▁Լոնդոնում	-6510
▁անդամները	-6511
պանի	-6512
▁Am	-6513
▁վարչակազմ	-6514
մեր	-6515
արկեր	-6516
▁հորին	-6517
▁ծավ	-6518
▁ածխ	-6519
▁Կիպր	-6520
▁գյուղը	-6521
▁Էստ	-6522
▁դատարանի	-6523
ence	-6524
▁լրատվ	-6525
բա	-6526
▁էլեկտրոնային	-6527
▁ռմբ	-6528
▁մատակարար	-6529
▁Օտ	-6530
нци	-6531
▁Մուր	-6532
▁փիլիսոփայության	-6533
▁Ռոմ	-6534
▁դասի	-6535
▁ոստիկանության	-6536
ամենտի	-6537
▁հավատար	-6538
▁նվազագույն	-6539
յուց	-6540
հետխորհրդային	-6541
ол	-6542
եշնչ	-6543
վածության	-6544
▁Սյունիքի	-6545
▁շրջակա	-6546
▁ժան	-6547
▁առումով	-6548
ճռ	-6549
▁անել	-6550
աբուծ	-6551
▁ուղարկել	-6552
▁լճի	-6553
▁մեխանի	-6554
ընդհանուր	-6555
▁համակարգչային	-6556
▁Դվինսկո	-6557
արշավ	-6558
▁մշակման	-6559
ke	-6560
▁արևել	-6561
ոիդ	-6562
▁համակ	-6563
▁շվեդ	-6564
▁Նահանգների	-6565
ագլ	-6566
իեն	-6567
▁Երիտ	-6568
▁դաշնակ	-6569
▁էս	-6570
▁արտասահմանյան	-6571
▁պատերազմում	-6572
եյլ	-6573
ամթեր	-6574
▁Կատ	-6575
ոններ	-6576
▁յուրահատ	-6577
▁Vol	-6578
own	-6579
▁Մադ	-6580
▁Ֆրանս	-6581
▁Մահացել	-6582
ae	-6583
▁քաղաքների	-6584
ome	-6585
ohn	-6586
▁Օբ	-6587
եստի	-6588
▁Մարզ	-6589
շակում	-6590
кс	-6591
▁ձկն	-6592
▁ժամկետ	-6593
▁Էնդ	-6594
տնտես	-6595
ծո	-6596
ակաց	-6597
▁Դվ	-6598
▁Գրական	-6599
▁տեսչության	-6600
▁որքան	-6601
▁նպատակն	-6602
▁բնակչությունը՝	-6603
▁ուստի	-6604
ism	-6605
▁Ռոման	-6606
▁տաճարի	-6607
▁կերպարը	-6608
▁ամուսնու	-6609
▁պայմանագիրը	-6610
▁գրքերի	-6611
▁մահեր	-6612
▁կինոռեժիսոր	-6613
նախագահ	-6614
▁ջերմաստիճանը	-6615
нин	-6616
▁քաղաքացի	-6617
▁Պետրոս	-6618
ահոս	-6619
եոդոր	-6620
▁Շուտով	-6621
▁Միևնույն	-6622
▁էլեկտրական	-6623
▁Էլիզ	-6624
▁сайте	-6625
▁Պավ	-6626
▁Կուբ	-6627
▁թերթի	-6628
▁կոնֆ	-6629
▁արժեքը	-6630
▁ժամանակավոր	-6631
▁երկն	-6632
էլ	-6633
իթմ	-6634
▁Ղազախ	-6635
);	-6636
ագիրներ	-6637
▁Gu	-6638
▁վարել	-6639
▁գերեզմանատանը	-6640
▁անջատ	-6641
▁տեսանկյուն	-6642
▁Պեչարսկի	-6643
▁Վերջինս	-6644
▁Մոտ	-6645
ապավ	-6646
▁անոթ	-6647
▁օպերատոր	-6648
վելը	-6649
▁Շվեդիայի	-6650
երենի	-6651
▁էներգիայի	-6652
▁մուլտֆիլմեր	-6653
▁Գերելս	-6654
▁հրաշ	-6655
▁բաշխ	-6656
▁Սոլ	-6657
▁Բյուզանդ	-6658
ենթ	-6659
▁ուժի	-6660
▁համբ	-6661
▁Awards	-6662
▁հատորի	-6663
▁եղած	-6664
▁Կյան	-6665
ներին՝	-6666
▁Թեր	-6667
▁օգնության	-6668
ակերտի	-6669
▁Արմեն	-6670
▁Տարածված	-6671
րև	-6672
Գրունևելդ	-6673
▁З	-6674
օրինակ՝	-6675
▁լայնորեն	-6676
кло	-6677
▁Լիգ	-6678
▁ըմբ	-6679
քսիդ	-6680
երկրյա	-6681
ությամբ՝	-6682
ствен	-6683
▁գործնական	-6684
▁ուշադրություն	-6685
▁հարազատ	-6686
▁հարցում	-6687
▁ԽՄԿԿ	-6688
▁Մակեդ	-6689
▁սինգլը	-6690
▁սպորտի	-6691
▁սոցիոլոգիական	-6692
գար	-6693
եգոր	-6694
▁Ժիտոմ	-6695
▁կառուցման	-6696
▁Is	-6697
▁մարմինների	-6698
▁Թատր	-6699
▁հիմնել	-6700
ունդը	-6701
կոհ	-6702
ետն	-6703
▁կիսապաշտպան	-6704
▁իրավական	-6705
▁Լո	-6706
իցս	-6707
ուլում	-6708
▁բնակավայրը	-6709
▁սալ	-6710
▁Լեռն	-6711
▁Հանրապետություն	-6712
խաղ	-6713
իններ	-6714
▁վարք	-6715
▁թույլատր	-6716
▁բույսերի	-6717
iti	-6718
▁կտ	-6719
Ալեքսանդր	-6720
▁որդու	-6721
▁բաժինը	-6722
▁հարձակում	-6723
La	-6724
▁Ex	-6725
▁երկայն	-6726
▁եկեղեցական	-6727
ings	-6728
▁ճապոնական	-6729
▁քաղաքներում	-6730
արիայում	-6731
▁Կոմունայի	-6732
ավորություն	-6733
▁հեղափոխական	-6734
▁Բաս	-6735
Կր	-6736
անով	-6737
▁Թիմ	-6738
▁ձվ	-6739
▁ավարտվում	-6740
▁դարձնում	-6741
▁Ռամ	-6742
▁լանջ	-6743
▁տարածում	-6744
▁գիտելի	-6745
ամերիկյան	-6746
▁ընտանիքին	-6747
ect	-6748
▁Սլով	-6749
▁հյուրանոց	-6750
▁մեկը՝	-6751
ics	-6752
▁այդպիսի	-6753
▁հիշատ	-6754
ագծի	-6755
▁համակարգերի	-6756
▁Ad	-6757
▁ժամանակներում	-6758
amp	-6759
▁Car	-6760
ուին	-6761
▁Մյուս	-6762
▁Երիտասարդ	-6763
ատներ	-6764
▁հանգստ	-6765
ումը՝	-6766
ame	-6767
▁նախագահը	-6768
уз	-6769
▁մահապատ	-6770
▁մասնագիտական	-6771
▁մրցանակաբաշխ	-6772
▁ֆեդերատիվ	-6773
▁Мо	-6774
▁սիմֆ	-6775
րդեհ	-6776
cy	-6777
▁ներգ	-6778
▁դանդաղ	-6779
▁տեղամասը՝	-6780
իներեն	-6781
փի	-6782
▁հարցերի	-6783
▁ընդարձակ	-6784
▁Billboard	-6785
▁մահանում	-6786
▁դարձր	-6787
թր	-6788
▁անձի	-6789
▁երկրներ	-6790
▁արաբական	-6791
▁առաջնություն	-6792
▁տեսությունը	-6793
ուլիսի	-6794
▁թմ	-6795
▁վերանվան	-6796
▁անցյալ	-6797
▁օպերային	-6798
ակտիվ	-6799
▁Անտոնի	-6800
▁Love	-6801
ope	-6802
▁Կլիմ	-6803
▁Ժիտոմիրի	-6804
անտաստիկ	-6805
▁z	-6806
▁մրցանակը	-6807
▁հարգ	-6808
ավա	-6809
▁Անդր	-6810
ակցված	-6811
▁վկայում	-6812
ևա	-6813
▁աղջկա	-6814
▁ձեռքբեր	-6815
▁պարզապես	-6816
▁վարկանիշ	-6817
▁ծառայում	-6818
▁Ստամբ	-6819
այիսի	-6820
▁մաքր	-6821
▁Ռաֆ	-6822
▁միջամտ	-6823
▁պահվում	-6824
աթաղ	-6825
▁Բրա	-6826
▁ճնշման	-6827
SA	-6828
▁բառը	-6829
▁զգալիորեն	-6830
եսին	-6831
▁հույս	-6832
▁եկամուտ	-6833
▁Զին	-6834
▁Շին	-6835
▁օկր	-6836
ոխր	-6837
▁Մկրտ	-6838
▁երեխաներին	-6839
զկ	-6840
▁մրցույթի	-6841
▁թվաքանակի	-6842
▁կտրուկ	-6843
ավազան	-6844
▁օրենքի	-6845
▁նշանակալի	-6846
row	-6847
▁ф	-6848
▁Ալեքսեյ	-6849
▁առնում	-6850
▁Բուլղարիայի	-6851
▁Or	-6852
▁տաճար	-6853
▁մեջ՝	-6854
▁մրցանակակիր	-6855
lass	-6856
▁համակարգում	-6857
клопе	-6858
նոր	-6859
▁XIX	-6860
▁Արթուր	-6861
բն	-6862
ilm	-6863
աշարժ	-6864
▁Fo	-6865
▁հաղթեց	-6866
իլիա	-6867
ույթներ	-6868
Անդ	-6869
▁al	-6870
▁Մուս	-6871
▁ուռուց	-6872
▁Դավիթ	-6873
▁խոնավ	-6874
Ֆրանսիայի	-6875
▁եղավ	-6876
▁ընդգծ	-6877
▁թղթակից	-6878
▁Էջ	-6879
▁նորամուտը	-6880
▁Խմել	-6881
▁տիտղոս	-6882
ատոմ	-6883
▁ռեկորդ	-6884
▁օրենք	-6885
արզ	-6886
ուռն	-6887
▁ողբերգ	-6888
▁Տվյալներն	-6889
comune	-6890
▁ծնվածներ	-6891
▁դիս	-6892
ոգրադի	-6893
▁դեղամիջոց	-6894
▁Յակ	-6895
▁պիես	-6896
▁մետաղադրամ	-6897
ալյան	-6898
ем	-6899
ենե	-6900
հա	-6901
▁օկ	-6902
ских	-6903
amb	-6904
կոտ	-6905
▁до	-6906
▁անկախության	-6907
աբլ	-6908
▁տեսակների	-6909
▁Լիբան	-6910
ենցիալ	-6911
▁երաժիշտներ	-6912
▁շեղ	-6913
նուպոլ	-6914
▁հանձնարար	-6915
▁հուշարձաններ	-6916
▁Բոն	-6917
ազիլի	-6918
▁սուբ	-6919
Աղ	-6920
▁Չարլզ	-6921
▁հետախուզ	-6922
▁բանտարկ	-6923
▁Դոնեցկի	-6924
▁առաջադրվել	-6925
▁գրոհ	-6926
▁քայք	-6927
▁Աբդ	-6928
▁ռեստ	-6929
▁հաջողությամբ	-6930
ԱՀ	-6931
▁օկրուգ	-6932
ax	-6933
Բար	-6934
▁Մերձ	-6935
իվան	-6936
որատիվ	-6937
▁համեր	-6938
▁պատիվ	-6939
▁քրիստոնեական	-6940
▁ամուսնացած	-6941
▁Մա	-6942
որշ	-6943
▁ճարտար	-6944
▁ժողովուրդների	-6945
▁լիճ	-6946
▁սյուժ	-6947
▁Եգիպտոսի	-6948
▁Se	-6949
▁տեղեկատվական	-6950
տորեն	-6951
▁առաջացած	-6952
▁Ֆլ	-6953
▁թողնում	-6954
▁Ամերիկայում	-6955
▁այսինքն՝	-6956
խիթ	-6957
▁փոստ	-6958
▁զբաղեց	-6959
▁աշխատող	-6960
▁այնուամենայնիվ	-6961
▁առաջինը	-6962
▁հակաս	-6963
եզիայի	-6964
▁բացել	-6965
▁հասավ	-6966
արշ	-6967
edia	-6968
▁Վասիլ	-6969
▁ոգեշնչ	-6970
▁լքել	-6971
ise	-6972
res	-6973
ondon	-6974
▁նշանակության	-6975
нциклопе	-6976
▁հայտնաբերել	-6977
իկագ	-6978
▁Տրան	-6979
▁j	-6980
▁վերանորոգ	-6981
ելա	-6982
▁դարերի	-6983
▁շղթ	-6984
▁սենյակ	-6985
▁բաժանված	-6986
▁գործը	-6987
▁Տոր	-6988
անակի	-6989
ավաճառ	-6990
▁Լատ	-6991
▁գումարման	-6992
ան՝	-6993
uss	-6994
▁Ներս	-6995
▁խփեց	-6996
▁մոլեկուլ	-6997
▁պատուհ	-6998
եկտրոնային	-6999
▁փլ	-7000
▁խոհանոց	-7001
▁pp	-7002
երիալի	-7003
արևմտյան	-7004
▁օգտակար	-7005
▁եպիսկոպոս	-7006
▁չափով	-7007
▁ուզում	-7008
▁արհեստական	-7009
երիա	-7010
▁Դպրոց	-7011
▁Նախկին	-7012
ադրման	-7013
▁դիվանագիտական	-7014
ագիծը	-7015
▁Այժմ	-7016
▁կտոր	-7017
▁տատ	-7018
▁մայրց	-7019
▁մասնագետ	-7020
ողությամբ	-7021
▁կործ	-7022
▁Pub	-7023
▁Միշ	-7024
▁երգչուհիներ	-7025
▁Բայ	-7026
▁ԵՊՀ	-7027
յոլ	-7028
▁մրցաշարի	-7029
▁Եվրատեսիլ	-7030
▁գործիքներ	-7031
մեկ	-7032
▁ավարտին	-7033
▁երկաթուղային	-7034
▁Նավ	-7035
նվազն	-7036
▁Երգը	-7037
уль	-7038
ախումբը	-7039
▁փաթ	-7040
նին	-7041
▁փոխել	-7042
▁իրավիճակ	-7043
ги	-7044
▁ամբիոնի	-7045
▁վայրի	-7046
▁բարեգործ	-7047
▁արդյունքներով	-7048
▁դրամատիկական	-7049
▁ստորագր	-7050
▁դատական	-7051
▁օրս	-7052
եզրափակ	-7053
▁բջիջների	-7054
▁Արամ	-7055
▁կատարելու	-7056
▁Հունգարիայի	-7057
իսա	-7058
ահաղորդ	-7059
նիցայի	-7060
▁օրենսդր	-7061
▁միջոցներ	-7062
▁Հաճախ	-7063
ղթի	-7064
▁խել	-7065
▁Պրո	-7066
▁ընկերություն	-7067
▁ка	-7068
▁ցավ	-7069
information	-7070
▁Ֆինլանդ	-7071
▁ժամանակաշրջանի	-7072
▁պահպանվում	-7073
▁հոգեբանական	-7074
յուծ	-7075
lay	-7076
▁Սովորել	-7077
եպտ	-7078
▁երեխաները	-7079
▁միջոցների	-7080
▁երկրամասում	-7081
րոջ	-7082
իզոդ	-7083
․․	-7084
▁le	-7085
շքերթներ	-7086
fer	-7087
▁History	-7088
▁ստուդիայի	-7089
ադիմ	-7090
Ապ	-7091
▁Ջեյ	-7092
րիկյան	-7093
▁ափին՝	-7094
▁տարել	-7095
▁Ինքնավար	-7096
▁կապույտ	-7097
▁կինոնկար	-7098
▁Պակ	-7099
▁Նաև	-7100
▁Գեորգի	-7101
▁արխ	-7102
nal	-7103
▁Օրինակ՝	-7104
▁միանգամ	-7105
▁չեղ	-7106
յալների	-7107
ոմեր	-7108
▁Վանի	-7109
ահյուս	-7110
ացիոնալ	-7111
▁մշակել	-7112
ров	-7113
աբեթ	-7114
▁դիրիժ	-7115
րիի	-7116
▁за	-7117
եոնի	-7118
▁կանգնած	-7119
մինչ	-7120
▁օրին	-7121
▁մտավոր	-7122
ադարձային	-7123
յուզի	-7124
▁մատն	-7125
▁երեխայի	-7126
ովիչը	-7127
ռան	-7128
իստի	-7129
այնակ	-7130
ал	-7131
▁վայրերում	-7132
▁Կա	-7133
▁անընդհատ	-7134
▁բանաձև	-7135
▁ազգանուններ	-7136
Առաջ	-7137
▁Պարսկ	-7138
▁զենք	-7139
յուդ	-7140
այգ	-7141
▁It	-7142
թայի	-7143
▁|}	-7144
ալիք	-7145
▁ձգտում	-7146
▁Ուլ	-7147
insee	-7148
▁Յար	-7149
▁На	-7150
▁գանձ	-7151
▁Ջո	-7152
ուրտ	-7153
▁Զանգ	-7154
▁մուտք	-7155
▁հատկաց	-7156
▁Ռումին	-7157
ня	-7158
, 	-7159
aw	-7160
▁ar	-7161
▁անցկացվել	-7162
▁լուսանկարները	-7163
▁Հերց	-7164
▁բեռն	-7165
▁իրականում	-7166
հել	-7167
▁Բրազիլի	-7168
ze	-7169
▁տրանս	-7170
▁նպատ	-7171
▁Ֆրեդ	-7172
▁հիվանդների	-7173
▁Վերջ	-7174
▁անհաջող	-7175
▁մրցաշարում	-7176
▁Արք	-7177
▁ժամանակների	-7178
▁դից	-7179
▁ճշգրիտ	-7180
▁Հիշատակ	-7181
▁Նար	-7182
▁մուգ	-7183
▁առավոտ	-7184
▁չինական	-7185
ադաս	-7186
բնակ	-7187
▁ամրոցը	-7188
iel	-7189
արանձ	-7190
▁օգնություն	-7191
ժշկական	-7192
▁հիմնադրել	-7193
▁ուսանող	-7194
▁Ac	-7195
▁լեզուների	-7196
ոլո	-7197
▁զրկ	-7198
▁Կոստանդնուպոլ	-7199
օդ	-7200
▁Դաս	-7201
▁Դերասան	-7202
իթլիսի	-7203
▁անվամբ	-7204
▁երևում	-7205
իխ	-7206
▁աշխարհը	-7207
կախ	-7208
ram	-7209
▁Ալբերտ	-7210
▁ճարպ	-7211
անոցի	-7212
▁հրթիռ	-7213
▁Երաժշտական	-7214
ատյան	-7215
▁կողքին	-7216
ընթ	-7217
▁զր	-7218
ավարիչ	-7219
հոլ	-7220
▁ինքնասպան	-7221
▁Հիս	-7222
▁Նոբելյան	-7223
▁Կոնստանտին	-7224
ակետ	-7225
ուսին	-7226
▁կայսերական	-7227
▁պայքարում	-7228
ղան	-7229
աղբյուր	-7230
▁ՈՒԵՖԱ	-7231
▁հարցերով	-7232
▁Մյուն	-7233
▁անցավ	-7234
▁մահացավ	-7235
▁հիշատակվում	-7236
▁մաք	-7237
▁Մաքսիմ	-7238
▁տաղանդ	-7239
▁նրանով	-7240
ам	-7241
▁Go	-7242
▁ֆեմին	-7243
▁Ֆրանսիա	-7244
▁մահացածներ	-7245
▁տալով	-7246
▁իրականացվել	-7247
▁իդ	-7248
եման	-7249
▁համառ	-7250
нов	-7251
ուները	-7252
▁պայմանագրի	-7253
▁առնվազն	-7254
երժ	-7255
լիման	-7256
անվ	-7257
ские	-7258
ոյեմբերի	-7259
▁գլխավորել	-7260
անումը	-7261
▁լաբորատոր	-7262
անո	-7263
բաց	-7264
▁ֆոնդ	-7265
▁Պաուլ	-7266
▁հինգերորդ	-7267
յոք	-7268
▁Լոր	-7269
▁գրառ	-7270
▁Պուշ	-7271
▁դրոշի	-7272
իմիական	-7273
▁նախարարի	-7274
ահր	-7275
ակցական	-7276
▁հանրապետական	-7277
ումներն	-7278
▁իմպ	-7279
ավճար	-7280
yn	-7281
▁Առաք	-7282
ասարակշռ	-7283
▁Վիննիցայի	-7284
▁գնել	-7285
▁հանգույց	-7286
▁Բագր	-7287
▁Հիվանդ	-7288
▁Ելեն	-7289
▁Պատմական	-7290
tain	-7291
▁դամբ	-7292
րեն	-7293
▁հրեան	-7294
▁Յուրաքանչյուր	-7295
▁տերմինը	-7296
▁հաջողություն	-7297
▁Ուղ	-7298
▁պոտ	-7299
▁Կիրով	-7300
▁Քաղաքական	-7301
ոգոր	-7302
▁բուսական	-7303
istat	-7304
▁հրաբ	-7305
ածո	-7306
արբեր	-7307
▁դաժան	-7308
▁Խմելնից	-7309
▁կուսակցությունը	-7310
հետև	-7311
▁թերապ	-7312
▁Անդրկ	-7313
▁առաքել	-7314
արվում	-7315
▁սպորտային	-7316
▁կապակցությամբ	-7317
լիճ	-7318
▁Շրջանի	-7319
րոգ	-7320
ինայի	-7321
▁վիճակը	-7322
▁բյուրոյի	-7323
▁հանրագիտ	-7324
▁փոփոխության	-7325
▁Նիժ	-7326
english	-7327
▁երկարատև	-7328
пи	-7329
▁մշտ	-7330
▁ջոկ	-7331
ալական	-7332
▁կարգավիճ	-7333
եյնը	-7334
▁բեկ	-7335
․,	-7336
▁զարմ	-7337
▁տարածքներ	-7338
▁ժամանակաշրջան	-7339
round	-7340
▁Բուր	-7341
▁նկարչ	-7342
▁ցուցակ	-7343
ту	-7344
տված	-7345
▁Արծ	-7346
▁վազ	-7347
▁խթան	-7348
▁Բեռլինի	-7349
▁Պու	-7350
▁գերակ	-7351
▁պես	-7352
Թողարկումն	-7353
▁ակադեմիական	-7354
▁Գաբրի	-7355
▁Չեմպիոն	-7356
ash	-7357
ոտը	-7358
▁an	-7359
▁Բոբ	-7360
▁Օգոստոսի	-7361
▁ազդում	-7362
▁ուրիշներ	-7363
▁ամբողջովին	-7364
▁Փիթ	-7365
անգստ	-7366
ՖՍՀ	-7367
▁բրիտանացի	-7368
▁Ներքին	-7369
▁աթ	-7370
▁լեգենդ	-7371
որդներ	-7372
▁պատասխանատվ	-7373
▁Ուիլ	-7374
▁Վյ	-7375
անդական	-7376
▁Արաբական	-7377
▁արքայազն	-7378
cl	-7379
ail	-7380
▁Hot	-7381
▁Թողարկ	-7382
իվի	-7383
▁մաշ	-7384
▁ավստրի	-7385
▁նախագիծը	-7386
լինգ	-7387
ափնյա	-7388
▁փիլիսոփայական	-7389
Մոսկ	-7390
▁ժամը	-7391
▁դարձան	-7392
▁երաժշտությունը	-7393
▁նրբ	-7394
ժան	-7395
րոֆ	-7396
▁գյուղից	-7397
▁Her	-7398
իներից	-7399
▁թվային	-7400
▁Բրյուս	-7401
▁բազմիցս	-7402
▁պարտադիր	-7403
▁#	-7404
ագրերը	-7405
արակի	-7406
▁գծով	-7407
▁կոմունիստական	-7408
ուսային	-7409
▁Դիմ	-7410
▁հայտնվեց	-7411
ղոլ	-7412
▁Պան	-7413
▁Ստալ	-7414
երների	-7415
▁փոխանցման	-7416
▁`	-7417
▁կանխատես	-7418
▁մրցաշրջան	-7419
▁ռաս	-7420
ետրվարի	-7421
▁քվ	-7422
▁քաղաքն	-7423
▁հաղթահար	-7424
▁Art	-7425
▁որոշմամբ	-7426
▁նավթ	-7427
itt	-7428
կոմ	-7429
▁Քննադատ	-7430
▁Բուլ	-7431
▁ծածկված	-7432
TA	-7433
▁Ամբ	-7434
▁դարից	-7435
աղեստ	-7436
Նիկ	-7437
բոր	-7438
view	-7439
▁դեղին	-7440
կրետ	-7441
▁փայլ	-7442
▁երգերը	-7443
▁լեզուներով	-7444
▁International	-7445
▁սիրո	-7446
▁տեսանկյունից	-7447
իվեր	-7448
տին	-7449
▁պարսկ	-7450
▁ли	-7451
▁Ծաղկ	-7452
cer	-7453
իսն	-7454
▁Իսրայել	-7455
▁համագում	-7456
ագեղ	-7457
▁նորաձև	-7458
▁վայրում	-7459
▁Նովգորոդի	-7460
րաշարժ	-7461
▁ձևակերպ	-7462
▁ավարտվեց	-7463
▁Քեր	-7464
▁տնտեսապես	-7465
▁Ver	-7466
▁խորհուրդը	-7467
▁մոտակայքում	-7468
▁ջուր	-7469
▁գործիք	-7470
ալիա	-7471
իկով	-7472
▁թատրոնը	-7473
▁ներդ	-7474
▁պրոցես	-7475
արանային	-7476
▁դարաշրջանի	-7477
իստը	-7478
ակցություն	-7479
▁առասպ	-7480
▁մատեն	-7481
▁հայտնագործ	-7482
իանա	-7483
▁հարցը	-7484
▁Բանաստեղծ	-7485
▁Gre	-7486
▁ձայ	-7487
ուհամ	-7488
▁էքս	-7489
lan	-7490
▁բանկի	-7491
▁բնակություն	-7492
ное	-7493
▁բնակիչների	-7494
▁բյուջ	-7495
▁տրված	-7496
ճանաչ	-7497
▁Հետև	-7498
▁ապակ	-7499
▁Վահ	-7500
▁Գրված	-7501
▁բորբ	-7502
▁պան	-7503
▁իրավունքը	-7504
град	-7505
▁հայրեն	-7506
▁ձևը	-7507
▁հանգամանք	-7508
TV	-7509
նե	-7510
▁Soc	-7511
▁Մու	-7512
▁հրե	-7513
▁Բեռլին	-7514
▁Հայդ	-7515
▁քաղաքատիպ	-7516
եյնի	-7517
▁Չեռն	-7518
▁միջով	-7519
▁պատերազմին	-7520
Ման	-7521
ոլա	-7522
▁սեզ	-7523
▁Ձեռագիրը	-7524
▁Նախիջ	-7525
дия	-7526
▁Էլստ	-7527
▁էֆեկտ	-7528
▁Հուշարձ	-7529
▁մեղադրանք	-7530
▁կհ	-7531
▁դաշնակից	-7532
▁հասկանում	-7533
իսպ	-7534
ջեր	-7535
աթափ	-7536
▁գործընթացը	-7537
▁Խորվաթ	-7538
▁со	-7539
ֆորդի	-7540
▁բանվոր	-7541
▁տաճարը	-7542
▁կուտակ	-7543
▁Եկատերին	-7544
▁Նապոլ	-7545
▁Վիճակագրություն	-7546
▁հաշտ	-7547
▁նշեց	-7548
▁ընկել	-7549
▁որոշեց	-7550
▁մեկտեղ	-7551
▁փողոցի	-7552
▁մրցույթում	-7553
աբանությունը	-7554
уб	-7555
con	-7556
▁Լևոն	-7557
ամշակութային	-7558
▁Լոռ	-7559
▁կապիտալ	-7560
▁ստացված	-7561
▁նրանցից	-7562
ոնները	-7563
▁Իրա	-7564
▁պոլ	-7565
лю	-7566
oph	-7567
хи	-7568
▁բևեռ	-7569
▁տասներ	-7570
▁վերահսկողության	-7571
▁Pol	-7572
▁խորհրդարանի	-7573
աչի	-7574
▁օպտ	-7575
▁շոու	-7576
նդյան	-7577
▁վերադարձավ	-7578
▁տեղադրվել	-7579
▁Ge	-7580
▁Խաղաղ	-7581
▁մուլտ	-7582
ՍԿ	-7583
ապար	-7584
▁առնչ	-7585
▁պարտական	-7586
▁Աք	-7587
▁ռոմանտիկ	-7588
▁ակտիվորեն	-7589
▁Լիպ	-7590
անյանը	-7591
▁խմբում	-7592
▁հետաքնն	-7593
▁վերափոխ	-7594
▁դոկտորներ	-7595
ավաթ	-7596
▁խաղեր	-7597
վենց	-7598
▁մեկնում	-7599
▁On	-7600
▁Рос	-7601
▁Մեյ	-7602
▁տարեկանից	-7603
ции	-7604
Կոմ	-7605
▁Պեկ	-7606
▁աճը	-7607
անդին	-7608
շև	-7609
▁լույսի	-7610
իկո	-7611
▁Անատ	-7612
▁Ժողովրդական	-7613
▁ծնողների	-7614
ադուստր	-7615
▁Լատվ	-7616
▁պարտավոր	-7617
▁նկարագրում	-7618
▁Enter	-7619
▁Գյուղը	-7620
▁Из	-7621
▁Ber	-7622
▁բացարձակ	-7623
▁Ռոն	-7624
▁հողի	-7625
եքսի	-7626
▁դետ	-7627
▁ժամանակը	-7628
▁արտադրությունը	-7629
ընթացի	-7630
եղեն	-7631
▁վայել	-7632
▁հոգեկան	-7633
▁Բեյ	-7634
▁տեսք	-7635
▁Հասարակ	-7636
▁Թումանյանի	-7637
▁լեռնաշխարհ	-7638
chen	-7639
▁Ֆրանցիսկ	-7640
▁կեղ	-7641
▁օրենքը	-7642
▁միասնական	-7643
▁For	-7644
▁թեն	-7645
▁դեպարտամենտի	-7646
իրում	-7647
▁ջութ	-7648
ովիչի	-7649
▁Հաս	-7650
իզավետ	-7651
եացի	-7652
▁արքա	-7653
▁du	-7654
րապես	-7655
▁կոդը՝	-7656
▁տրվել	-7657
▁սկիզբը	-7658
ոռոչ	-7659
վանդ	-7660
ակարգի	-7661
բայր	-7662
▁ընդդիմ	-7663
▁Book	-7664
▁սովորում	-7665
▁Թեև	-7666
▁Շառլ	-7667
▁դիմել	-7668
▁բյուրեղ	-7669
▁փոխնախագահ	-7670
▁And	-7671
▁կառավարիչ	-7672
մաս	-7673
տոտ	-7674
չելի	-7675
▁Ռայ	-7676
▁կենտրոնն	-7677
▁Դալ	-7678
▁կաշ	-7679
▁անապատ	-7680
ապի	-7681
▁Բու	-7682
ana	-7683
▁Ընտր	-7684
lag	-7685
▁Պիր	-7686
▁շնորհվել	-7687
▁կողմը	-7688
արանները	-7689
ձեռ	-7690
ագար	-7691
сс	-7692
▁նեյ	-7693
▁Պտ	-7694
վածների	-7695
▁դնում	-7696
▁էք	-7697
▁ֆոտ	-7698
անկարծ	-7699
ck	-7700
տային	-7701
▁բնակիչներից	-7702
▁ՆԱ	-7703
անքում	-7704
▁լրագրողներ	-7705
▁համարվել	-7706
մոտ	-7707
▁լրիվ	-7708
▁Իտալացի	-7709
ations	-7710
առական	-7711
պերատոր	-7712
▁նախքան	-7713
▁հետևաբար	-7714
▁No	-7715
նդիր	-7716
▁Վիեննայի	-7717
ai	-7718
▁միանում	-7719
ոնե	-7720
▁բակտ	-7721
▁Paris	-7722
▁ալկոհ	-7723
▁կոմպոզից	-7724
▁նվագախմբի	-7725
▁ամրոցի	-7726
▁ուղղափառ	-7727
▁յուրահատուկ	-7728
▁նմանատիպ	-7729
կում	-7730
▁գող	-7731
▁Կաս	-7732
▁те	-7733
▁Խմելնիցկիի	-7734
▁ձայնագր	-7735
▁փոք	-7736
▁բարի	-7737
▁նորմալ	-7738
▁ռազմաճ	-7739
▁կանոնավոր	-7740
▁շահագործ	-7741
▁ցեղասպանության	-7742
▁հեռուստաընկեր	-7743
▁աճել	-7744
▁անցկացվում	-7745
ты	-7746
բար	-7747
▁Լայ	-7748
▁սին	-7749
ors	-7750
րուն	-7751
▁Հավաք	-7752
▁ազգայն	-7753
ւոյ	-7754
▁տիեզերական	-7755
▁վավերագրական	-7756
▁Յոն	-7757
▁որոնցում	-7758
▁նախագահական	-7759
▁տարածվում	-7760
ախտակ	-7761
ահանջ	-7762
▁իմուն	-7763
▁սուպեր	-7764
Սև	-7765
▁№ 	-7766
▁գալով	-7767
▁տարածաշրջանային	-7768
ուփ	-7769
թոնի	-7770
ital	-7771
ավորող	-7772
ացմամբ	-7773
▁Ստեղծվել	-7774
▁ընտրական	-7775
▁տուժ	-7776
▁հատոր	-7777
▁տարածաշրջանում	-7778
▁Իվ	-7779
նար	-7780
▁թաթ	-7781
▁Սինգ	-7782
▁միապետ	-7783
​​	-7784
▁Air	-7785
▁Դոնի	-7786
հայտ	-7787
թվական	-7788
ականում	-7789
▁նպաստում	-7790
▁պտտ	-7791
իմը	-7792
▁Էրիկ	-7793
▁հնագիտական	-7794
▁ստուդիական	-7795
ուրան	-7796
▁բարձրությունը	-7797
իկային	-7798
▁փուլի	-7799
▁օրինական	-7800
▁Բա	-7801
▁Կամպ	-7802
ագայի	-7803
▁հրդեհ	-7804
▁Կոպ	-7805
▁սառց	-7806
▁միավորներից	-7807
ть	-7808
▁ավազանը	-7809
▁ֆիզիկայի	-7810
անգլ	-7811
▁աղջիկը	-7812
▁անասնապահ	-7813
▁նյարդային	-7814
▁Էս	-7815
▁Մարտի	-7816
▁Ծնունդ	-7817
▁​​	-7818
ction	-7819
▁կրթությունը	-7820
ֆոր	-7821
▁Վիշ	-7822
▁Թիֆլիս	-7823
ենոս	-7824
▁հարձակման	-7825
ոյից	-7826
▁շարքի	-7827
▁ամառային	-7828
սանի	-7829
▁London	-7830
▁կառուցվածքը	-7831
▁կաղ	-7832
▁թաքն	-7833
▁ընդհ	-7834
▁լեռներ	-7835
աբերական	-7836
վածքները	-7837
чи	-7838
ենյան	-7839
Սիր	-7840
▁խաղալ	-7841
▁Զելանդ	-7842
թար	-7843
ուժի	-7844
աբույժ	-7845
▁Այսպես	-7846
▁Անգլերեն	-7847
▁<	-7848
▁ծագման	-7849
▁Ճապոնիայում	-7850
նեց	-7851
իտեր	-7852
▁Թուրք	-7853
▁թագավորը	-7854
▁առնելով	-7855
Նա	-7856
▁ապա՝	-7857
▁տարիքում	-7858
իտների	-7859
сть	-7860
անիզմի	-7861
▁Միքայել	-7862
ացանց	-7863
▁Ռուդ	-7864
▁կողմն	-7865
ler	-7866
ԱՄՆ	-7867
ակցում	-7868
▁խնդիրները	-7869
եկը	-7870
▁կղզի	-7871
▁կոտոր	-7872
ван	-7873
▁բնակիչները	-7874
▁ռադիո	-7875
▁Դեռ	-7876
▁համայնքում	-7877
▁կենց	-7878
▁Լենինի	-7879
▁տասնյակ	-7880
▁զարգանում	-7881
▁ճգնաժամ	-7882
▁քառակուսի	-7883
▁вы	-7884
▁Բաց	-7885
▁տարածքները	-7886
Քաղաք	-7887
▁գիշերը	-7888
▁զգացմունք	-7889
▁տեսակետ	-7890
ենկո	-7891
▁բնույթի	-7892
▁կոմպոզիտորներ	-7893
▁ախտահար	-7894
ողն	-7895
արտի	-7896
▁էնդ	-7897
▁Ղարաբ	-7898
▁Մասնակցել	-7899
▁անդրադարձ	-7900
▁Բերգ	-7901
▁Միայն	-7902
օրին	-7903
ամերձ	-7904
▁շախմատ	-7905
եմատոգրաֆ	-7906
▁ապրանքների	-7907
▁Պահպան	-7908
▁Դեբ	-7909
▁Բի	-7910
ելդ	-7911
▁շուտ	-7912
ren	-7913
նիի	-7914
▁իրականացնել	-7915
▁չին	-7916
▁Չիկագ	-7917
▁կոնկրետ	-7918
ամս	-7919
ունչ	-7920
րիպ	-7921
tures	-7922
▁կապը	-7923
ուրժ	-7924
▁կղզին	-7925
▁բալետի	-7926
▁Մարդու	-7927
ՀՀ	-7928
▁տոհմ	-7929
ավորությունը	-7930
bert	-7931
▁ձեռագիր	-7932
▁մեծացել	-7933
▁հարավար	-7934
▁առաջնային	-7935
իտր	-7936
աշնակ	-7937
▁տասը	-7938
ium	-7939
▁փոփոխություններ	-7940
▁()։	-7941
▁թվական՝	-7942
այուն	-7943
▁նյութական	-7944
urg	-7945
▁Հռ	-7946
ology	-7947
աքաղաք	-7948
հրատ	-7949
▁Ind	-7950
▁Մովս	-7951
▁մտահ	-7952
ino	-7953
▁հրետ	-7954
▁Պատվ	-7955
առու	-7956
▁պահում	-7957
▁տրամադր	-7958
Էր	-7959
րեցին	-7960
▁օվկիանոս	-7961
eum	-7962
ча	-7963
any	-7964
▁տեխնոլոգիական	-7965
▁Բավարի	-7966
▁մզկ	-7967
▁պարբերաբար	-7968
Le	-7969
▁ле	-7970
ուլին	-7971
ческий	-7972
անուններ	-7973
▁մակերևույթ	-7974
▁սպանության	-7975
▁Մագ	-7976
▁թարմ	-7977
աժամկետ	-7978
▁ճանապարհով	-7979
▁Ջեքս	-7980
Կան	-7981
▁Էջմի	-7982
▁խողով	-7983
ապահպան	-7984
ournal	-7985
▁կենսաբանական	-7986
▁ch	-7987
iter	-7988
▁պարկ	-7989
ացումից	-7990
▁ծան	-7991
col	-7992
շալ	-7993
▁Համբ	-7994
AS	-7995
ink	-7996
▁Դուբ	-7997
▁Dis	-7998
▁բարոյական	-7999
▁Ատլանտ	-8000
ներից՝	-8001
▁հայեց	-8002
▁Վասիլի	-8003
▁բացակայում	-8004
▁հույն	-8005
ión	-8006
ери	-8007
▁Բոգ	-8008
▁հեռանալ	-8009
▁Սառ	-8010
▁դեպքերի	-8011
▁դուստրը	-8012
ագործական	-8013
▁հմտ	-8014
▁մին	-8015
ափակում	-8016
▁հաջողվել	-8017
▁Բադ	-8018
▁Ստորին	-8019
▁խնդիրը	-8020
արագ	-8021
▁Ցանկ	-8022
▁թափանց	-8023
▁բնակելի	-8024
իլդ	-8025
▁ստր	-8026
▁վտանգավոր	-8027
▁փիլիսոփայ	-8028
▁հանդիպումը	-8029
▁խոռոչ	-8030
▁Կրթություն	-8031
▁ձախող	-8032
ասին	-8033
▁նկարել	-8034
▁փոխազդեց	-8035
▁պատրաստում	-8036
став	-8037
նանը	-8038
ավարման	-8039
▁նկարագրել	-8040
▁օպերայի	-8041
▁կղզում	-8042
թիվ	-8043
▁Սիդ	-8044
▁Ոսկե	-8045
Պատմ	-8046
уд	-8047
▁American	-8048
ank	-8049
▁պահել	-8050
▁գոյության	-8051
▁մանրամասն	-8052
երա	-8053
▁մտց	-8054
▁բջջային	-8055
▁ստանձ	-8056
▁գերակշռ	-8057
▁խաղադաշտ	-8058
▁խոտ	-8059
▁հայտնում	-8060
անտային	-8061
▁դատավոր	-8062
▁Ջր	-8063
▁Հայքի	-8064
▁!	-8065
▁{	-8066
ուլը	-8067
▁Gen	-8068
▁ջրանց	-8069
հուն	-8070
▁Թաղ	-8071
▁կանխարգել	-8072
▁Չեռնի	-8073
▁դիտվում	-8074
▁Գերմանիա	-8075
▁սաղ	-8076
▁ուրախ	-8077
▁հրապարակել	-8078
оро	-8079
մադ	-8080
▁не	-8081
արով	-8082
ստան	-8083
▁ենթադր	-8084
մինչև	-8085
ոթի	-8086
▁հաստատում	-8087
▁սկզբն	-8088
▁ծնողները	-8089
▁ակնարկ	-8090
▁չկարող	-8091
▁արդյոք	-8092
▁պատժ	-8093
ավային	-8094
▁El	-8095
տվյալները՝	-8096
▁Հայաստանը	-8097
րու	-8098
կոմի	-8099
▁հրամանով	-8100
▁հայտարարվել	-8101
▁ցուցադրվում	-8102
▁%,	-8103
▁Գոգ	-8104
▁շարժումը	-8105
աբերության	-8106
▁ուղարկում	-8107
ևին	-8108
▁հյու	-8109
▁դատախ	-8110
der	-8111
սակ	-8112
▁խնդրում	-8113
▁Դե	-8114
▁Cent	-8115
▁Մուհամ	-8116
▁հրեաների	-8117
▁չափանիշ	-8118
▁Գերմանական	-8119
▁Ճարտարապետ	-8120
▁էպիզոդ	-8121
▁պատրաստել	-8122
▁ֆիլ	-8123
▁պաշտպանական	-8124
▁էմ	-8125
▁Դան	-8126
իրական	-8127
▁բաժնետ	-8128
▁դպրոցական	-8129
պի	-8130
▁Հոր	-8131
tainment	-8132
oy	-8133
ces	-8134
▁Օգտագործ	-8135
▁սահմանում	-8136
▁հավասարակշռ	-8137
▁Աստղ	-8138
▁Էրզրումի	-8139
լայի	-8140
պե	-8141
▁di	-8142
իկիայի	-8143
▁շքանշանով	-8144
▁կծ	-8145
▁Ստեփանակ	-8146
▁ձերբակալվել	-8147
▁ֆիզի	-8148
ութենական	-8149
ենտալ	-8150
▁Լուիզ	-8151
▁մական	-8152
▁շենքեր	-8153
պաստ	-8154
արատի	-8155
▁տերմին	-8156
մոն	-8157
▁Օքս	-8158
▁Մյունխ	-8159
▁պրովինցիայի	-8160
որակ	-8161
▁անհավ	-8162
▁սերունդ	-8163
▁Կազ	-8164
▁եվրո	-8165
ուհուն	-8166
ազոտական	-8167
▁վիպասան	-8168
line	-8169
▁թեք	-8170
երման	-8171
▁բանի	-8172
▁իբրև	-8173
▁ոչինչ	-8174
▁նպաստել	-8175
եպատ	-8176
Օր	-8177
առի	-8178
մեդ	-8179
▁Կառավարության	-8180
Պատ	-8181
ունիքի	-8182
▁գործողության	-8183
ավորումների	-8184
▁շնչի	-8185
▁չափս	-8186
▁ամիսներին	-8187
▁ո	-8188
ոչընդ	-8189
▁տիտղոսը	-8190
▁բել	-8191
Տարվա	-8192
▁հեղուկ	-8193
լյ	-8194
▁Օվ	-8195
ոբալ	-8196
ընտրանք	-8197
▁տիրապետության	-8198
ames	-8199
▁Ավագ	-8200
▁Ասիայում	-8201
▁Ins	-8202
▁հրապարակախոս	-8203
▁անալ	-8204
▁Inter	-8205
▁մոտիվ	-8206
▁վաճառքի	-8207
▁որովհետև	-8208
▁նկարազարդ	-8209
▁հիմնադրամի	-8210
▁տեսություն	-8211
▁բոլորը	-8212
▁Բրիտանացի	-8213
▁Անգլիայում	-8214
յոթ	-8215
▁ամսագրում	-8216
թանգ	-8217
▁թե՛	-8218
▁ծրագրերի	-8219
▁ստորաբաժանում	-8220
▁օդաչ	-8221
''	-8222
ոսպ	-8223
▁Երեք	-8224
▁•	-8225
▁Gr	-8226
▁կետը	-8227
▁տարածքների	-8228
▁Life	-8229
▁ծայրահեղ	-8230
▁հարավում	-8231
քսը	-8232
վեյց	-8233
▁Pic	-8234
▁հուս	-8235
ata	-8236
▁քննադատների	-8237
▁աղի	-8238
▁Փոլ	-8239
▁հպ	-8240
▁գոլային	-8241
▁երկրաշարժ	-8242
ция	-8243
▁ինչն	-8244
▁Լավագույն	-8245
▁կառուցվածքի	-8246
pt	-8247
ater	-8248
нинград	-8249
▁սպանվել	-8250
vel	-8251
▁ռեփ	-8252
ոսլավ	-8253
▁միություն	-8254
▁հյուսիսում	-8255
▁Գոլ	-8256
▁Խաչատր	-8257
իսլավ	-8258
att	-8259
▁փլուզ	-8260
▁կոնսերվատոր	-8261
▁վայրը	-8262
▁Sy	-8263
▁կրոն	-8264
▁Հանդիս	-8265
սա	-8266
back	-8267
զն	-8268
▁Թր	-8269
իլին	-8270
ագրերում	-8271
ֆին	-8272
ավում	-8273
▁Լոնդոն	-8274
▁ընտրել	-8275
րը	-8276
ՆԵՍԿ	-8277
▁Իրան	-8278
▁կանտոնի	-8279
▁կաթողիկոս	-8280
ստրուկ	-8281
▁օվկիանոսի	-8282
▁All	-8283
af	-8284
ինիի	-8285
ows	-8286
▁թեստ	-8287
▁հատվածի	-8288
քնն	-8289
atur	-8290
▁ԴՆԹ	-8291
▁վանական	-8292
▁օժանդակ	-8293
սկոե	-8294
▁Կարապետ	-8295
▁զարգացմանը	-8296
▁կազմակերպված	-8297
լետ	-8298
▁դրանով	-8299
ube	-8300
ley	-8301
▁Յունայթ	-8302
լոմ	-8303
հեմ	-8304
արիզ	-8305
▁Հիտ	-8306
▁արվեստը	-8307
▁սփ	-8308
▁մատուռ	-8309
Al	-8310
▁երանգ	-8311
▁Չեմպիոնների	-8312
վարճ	-8313
▁ամենը	-8314
արկվում	-8315
▁առաջինն	-8316
▁ուշադրությունը	-8317
▁մաթեմատիկական	-8318
▁հանգեցրեց	-8319
way	-8320
▁վճռ	-8321
ein	-8322
կոյի	-8323
▁շաքար	-8324
▁հաճ	-8325
▁հետազոտական	-8326
ելն	-8327
գորի	-8328
չությունը	-8329
▁անցկացված	-8330
▁տարածությունը	-8331
Բր	-8332
▁з	-8333
▁գար	-8334
▁սահմանված	-8335
▁գերմաներեն	-8336
▁դստեր	-8337
▁ուսանողների	-8338
▁լարված	-8339
▁կինոստ	-8340
▁դասակարգման	-8341
▁Բիր	-8342
▁մեդալով	-8343
▁բուլղ	-8344
իդը	-8345
▁սինթեզ	-8346
▁վաճառվել	-8347
արս	-8348
ավարձ	-8349
Արտ	-8350
▁հերթական	-8351
▁մարզում՝	-8352
▁որոշումը	-8353
ոկատակերգ	-8354
▁ազատության	-8355
Անտ	-8356
▁եղբայրը	-8357
յոմ	-8358
▁Քվ	-8359
▁Entertainment	-8360
երներ	-8361
▁истор	-8362
▁լիովին	-8363
▁նկարչի	-8364
▁Ֆրիդրիխ	-8365
▁մշակում	-8366
այը	-8367
▁կոնֆեր	-8368
▁կազմը	-8369
▁մշտապես	-8370
▁կիսաեզրափակ	-8371
սպաս	-8372
ual	-8373
յուբ	-8374
она	-8375
▁կոլեկ	-8376
▁ընտրության	-8377
լիգ	-8378
▁Ар	-8379
ոտիկ	-8380
▁Կատար	-8381
ցին	-8382
րանկար	-8383
ավազանը	-8384
▁Ընտանիք	-8385
▁Կորեայի	-8386
▁Սիրիայի	-8387
▁ջերմաստիճան	-8388
եշի	-8389
▁ճանապարհը	-8390
ությունները՝	-8391
ցք	-8392
▁բժշկության	-8393
ամարտիկ	-8394
▁պաշտամ	-8395
ouse	-8396
огра	-8397
կարի	-8398
▁դրդ	-8399
ury	-8400
Արդ	-8401
▁խորհրդական	-8402
▁Չինաստանում	-8403
▁Միջն	-8404
▁Հետաքրք	-8405
▁կատարման	-8406
Աբ	-8407
Ին	-8408
ture	-8409
ոնիան	-8410
por	-8411
▁տարածքներում	-8412
▁քարանձ	-8413
▁ստացած	-8414
▁արարող	-8415
ոնայի	-8416
.)։	-8417
ott	-8418
▁կատալ	-8419
▁տեսահոլովակը	-8420
▁պտղ	-8421
▁տարածվել	-8422
ոտա	-8423
▁ասաց	-8424
let	-8425
Un	-8426
արդը	-8427
▁Բեթ	-8428
▁ակադեմիայում	-8429
▁Բուժ	-8430
▁տատան	-8431
▁չգ	-8432
ազին	-8433
եցնելու	-8434
իլվ	-8435
▁կատարեց	-8436
▁Նահանգներում	-8437
  	-8438
վոլյուց	-8439
▁հեղինակի	-8440
ողներից	-8441
▁առողջության	-8442
aj	-8443
▁Գյում	-8444
▁ստեղծեց	-8445
ատա	-8446
▁ջոկատ	-8447
▁Моск	-8448
տենանտ	-8449
տվ	-8450
▁Եկեղեցու	-8451
ներով՝	-8452
▁Ներկայաց	-8453
▁ընկերոջ	-8454
▁Հոկտեմբերի	-8455
ուբեր	-8456
▁անհամ	-8457
▁օրերին	-8458
▁ձմ	-8459
▁Har	-8460
▁մրցանակներ	-8461
ուղղ	-8462
▁ՅՈՒ	-8463
▁թղթի	-8464
▁համընկ	-8465
▁նյութի	-8466
▁հաջողվում	-8467
▁հիմքը	-8468
▁կց	-8469
ենսի	-8470
▁գմբ	-8471
▁այցելու	-8472
▁տարածաշրջանի	-8473
ret	-8474
▁զեն	-8475
▁զեկույց	-8476
▁միայնակ	-8477
ца	-8478
▁Արգենտինայի	-8479
▁ամառ	-8480
▁հրեա	-8481
ՆԵՍԿՕ	-8482
▁պետություն	-8483
▁իրավունքները	-8484
▁նացի	-8485
▁ետ	-8486
▁ավտոմատ	-8487
սկում	-8488
▁Բարսել	-8489
▁կարիք	-8490
▁վերցնում	-8491
▁Երգի	-8492
▁ներգաղթ	-8493
թափ	-8494
▁հուշարձանը	-8495
▁խանգարում	-8496
▁երես	-8497
▁ճաշ	-8498
ևկա	-8499
ացումն	-8500
▁կոչվող	-8501
▁Մոդ	-8502
▁Տոմ	-8503
▁բերդ	-8504
ացության	-8505
▁երկայնքով	-8506
ակցել	-8507
▁Վիլհել	-8508
խոս	-8509
▁Շվեյցարիայի	-8510
▁մր	-8511
ոցում	-8512
▁Գիտական	-8513
▁կղզիների	-8514
ընկալ	-8515
▁Դեյվիդ	-8516
▁քրոջ	-8517
Ինչ	-8518
այայի	-8519
▁վեպեր	-8520
▁com	-8521
▁դահլիճ	-8522
▁պահպանվող	-8523
խազ	-8524
▁Մեթ	-8525
▁հաղորդավար	-8526
Իր	-8527
ՆԱ	-8528
▁երջ	-8529
▁փոշ	-8530
▁դինամ	-8531
▁անցկացնում	-8532
▁ներկայացվում	-8533
ակոչ	-8534
▁խոչընդ	-8535
ке	-8536
▁սոցիալիստական	-8537
ֆորդ	-8538
ակատի	-8539
▁հեռացել	-8540
ground	-8541
ford	-8542
▁Արա	-8543
ուստի	-8544
▁Մայիսի	-8545
ric	-8546
արդիա	-8547
▁միջուկային	-8548
պեդ	-8549
հարկ	-8550
Հեռախոս	-8551
▁մրցանակին	-8552
▁կապիտ	-8553
▁պարտություն	-8554
վազ	-8555
▁Մահեր	-8556
▁մեծապես	-8557
▁տանկ	-8558
լաս	-8559
▁կինոկատակերգ	-8560
ery	-8561
ադեպ	-8562
▁John	-8563
▁վաստակ	-8564
▁վերցրել	-8565
▁տեխնոլոգիաների	-8566
ինս	-8567
▁Գեն	-8568
▁Մխիթ	-8569
▁որդին՝	-8570
▁Իգոր	-8571
▁Կանանց	-8572
▁կարևորագույն	-8573
eth	-8574
▁Պավել	-8575
▁խորհրդարանական	-8576
ենկոն	-8577
▁իռլանդ	-8578
▁ուտեստ	-8579
վիր	-8580
▁կանադ	-8581
▁Աշխատանքային	-8582
▁Tra	-8583
▁պեղ	-8584
▁գույնի	-8585
▁փոփոխությունը	-8586
▁միանգամից	-8587
ony	-8588
յոդ	-8589
▁էստ	-8590
▁օկուպ	-8591
▁Լուի	-8592
▁կիրառման	-8593
▁պաշտպանում	-8594
անքներ	-8595
▁անմիջական	-8596
ատարի	-8597
▁Վենետ	-8598
▁վանքի	-8599
▁պառ	-8600
▁բյուզանդ	-8601
▁գրանցվել	-8602
զը	-8603
եցվել	-8604
▁անիմացիոն	-8605
ney	-8606
աշնչ	-8607
▁երդ	-8608
▁Ч	-8609
պար	-8610
▁կոպ	-8611
▁խաղաղության	-8612
▁Լիվ	-8613
▁Դեպքեր	-8614
▁Գործունե	-8615
ևո	-8616
▁կիրառվել	-8617
երիմ	-8618
▁Եվգենի	-8619
▁կուլտ	-8620
▁որդուն	-8621
▁ավտոմեքեն	-8622
ուղի	-8623
▁բակալ	-8624
▁գործերը	-8625
եյդ	-8626
▁ամուր	-8627
րիբ	-8628
▁Կղզ	-8629
▁դաշտի	-8630
▁հանգեցրել	-8631
▁արդյունքների	-8632
▁ընտրությունների	-8633
▁կապում	-8634
▁հրապարակվել	-8635
▁Նե	-8636
▁որոշման	-8637
▁Արձ	-8638
▁Մանուկ	-8639
▁շք	-8640
rist	-8641
արդար	-8642
mp	-8643
▁Շում	-8644
▁կապերի	-8645
▁գործեր	-8646
▁վիրավոր	-8647
▁երկրաչափ	-8648
▁ընդունվում	-8649
▁ընդհանրապես	-8650
▁մինի	-8651
▁ռեժիսոր՝	-8652
ակիայի	-8653
ացիաների	-8654
▁CD	-8655
▁խորը	-8656
▁կոտր	-8657
▁ասելով	-8658
▁ամուսնալուծ	-8659
▁թիր	-8660
▁բարեգործական	-8661
իմա	-8662
անիստ	-8663
▁արքան	-8664
▁սպորտ	-8665
▁քրիստոնե	-8666
▁գերազանցում	-8667
▁ենթաավազանը	-8668
▁բացակայության	-8669
▁Bar	-8670
▁բաժնում	-8671
▁հաճախել	-8672
duc	-8673
erv	-8674
▁де	-8675
▁Ինտ	-8676
▁Չեր	-8677
▁ընդհանր	-8678
▁տարրական	-8679
▁Ռաս	-8680
▁մուտքի	-8681
▁ճակատամարտում	-8682
▁ուսումնասիրում	-8683
▁Հերցեգ	-8684
▁Ր	-8685
▁Արխ	-8686
ագրավ	-8687
▁Տեսահոլով	-8688
▁կարողացավ	-8689
աբն	-8690
▁տեսարժան	-8691
▁Կիևի	-8692
▁սկզբից	-8693
▁Արևելքի	-8694
▁Ծնունդներ	-8695
▁Սեպտեմբերի	-8696
▁ոճը	-8697
▁Ռեյն	-8698
▁Հյու	-8699
ագագաթ	-8700
▁Մաշտոցի	-8701
▁իրականացրել	-8702
ուլա	-8703
ետնամ	-8704
Th	-8705
լահ	-8706
▁ռուբ	-8707
▁կառուցվածք	-8708
▁կրող	-8709
▁բիզն	-8710
▁ճանաչել	-8711
զին	-8712
▁դաշին	-8713
▁շուրջը	-8714
▁դաշնակահար	-8715
ցանց	-8716
▁ուսուցման	-8717
պետք	-8718
▁Տավ	-8719
▁բռնկ	-8720
▁կամավոր	-8721
▁աջակցում	-8722
ապատմ	-8723
երծ	-8724
▁Թայ	-8725
▁ունենալու	-8726
աբր	-8727
овет	-8728
▁արտադրանքի	-8729
▁լուր	-8730
երում՝	-8731
արգման	-8732
▁սերիալի	-8733
ոնացի	-8734
▁Տուր	-8735
▁հույ	-8736
▁Նիժնի	-8737
ür	-8738
ացրած	-8739
անիտար	-8740
▁աշնանը	-8741
▁նպատակը	-8742
երտի	-8743
▁հոդվածը	-8744
ալց	-8745
▁նվիրել	-8746
▁որտեղից	-8747
Հով	-8748
ոսն	-8749
ակողմ	-8750
գռ	-8751
▁շեշտ	-8752
Հայկական	-8753
▁ագ	-8754
անավ	-8755
երոն	-8756
▁իդեալ	-8757
▁տեղեկատվության	-8758
циаль	-8759
ագործության	-8760
▁վերածն	-8761
▁Հետազոտ	-8762
▁художник	-8763
աթև	-8764
▁մաշկ	-8765
ոպոլ	-8766
▁Eur	-8767
▁Լես	-8768
▁փափ	-8769
▁կային	-8770
▁կորցրել	-8771
▁Ենթադրվում	-8772
▁Բոյ	-8773
ացվող	-8774
▁Մոլդ	-8775
ства	-8776
ակապ	-8777
▁կլոր	-8778
ited	-8779
աֆիլմ	-8780
▁մեղմ	-8781
atal	-8782
վածային	-8783
▁տալու	-8784
lor	-8785
Հայաստան	-8786
▁անհանգստ	-8787
ды	-8788
դիր	-8789
եքսպ	-8790
▁քամ	-8791
▁սիրելի	-8792
▁ուսումը	-8793
որդան	-8794
ականիշ	-8795
фия	-8796
%,	-8797
▁ժողովածուն	-8798
ատրի	-8799
▁ստեղծվեց	-8800
titut	-8801
ահանման	-8802
▁ղեկավարը	-8803
րդական	-8804
ոբիլ	-8805
▁կենցաղ	-8806
▁որոշվում	-8807
ka	-8808
հեղ	-8809
▁Թեյ	-8810
▁առավոտյան	-8811
▁Ստեֆ	-8812
▁բեմադր	-8813
▁Հարավսլավ	-8814
վարդի	-8815
▁ամենախ	-8816
▁սկավառ	-8817
▁VI	-8818
▁ժանրի	-8819
ara	-8820
▁նորվեգ	-8821
▁թեմայով	-8822
▁Գոյություն	-8823
▁Mod	-8824
▁ատեն	-8825
աստղ	-8826
▁գետերի	-8827
▁ասպիր	-8828
▁կանտոն	-8829
երիկամ	-8830
▁քաղցկեղի	-8831
▁մաշկի	-8832
▁քանակի	-8833
արայի	-8834
▁բանջ	-8835
▁հիվանդություն	-8836
յունը	-8837
▁դարպասապահ	-8838
▁օդային	-8839
բերգը	-8840
▁կենդանիներ	-8841
би	-8842
▁մտավ	-8843
▁մեծահաս	-8844
▁Թանգարանի	-8845
անգել	-8846
▁Աբրահամ	-8847
ենու	-8848
մանդամ	-8849
▁մեկին	-8850
▁ընդհատ	-8851
▁հնդկական	-8852
▁ժամանակին	-8853
կը	-8854
▁խց	-8855
▁Հրե	-8856
▁Շամ	-8857
▁տեղադր	-8858
▁շարքը	-8859
▁պահպանված	-8860
▁pr	-8861
▁Արտաշ	-8862
▁Ne	-8863
▁փաստեր	-8864
▁col	-8865
▁ամսվա	-8866
իստները	-8867
▁վարում	-8868
▁նախաձեռնությամբ	-8869
արեզ	-8870
▁երկուսն	-8871
▁մագիստր	-8872
▁ամբիոն	-8873
▁հանկարծ	-8874
վարձ	-8875
▁արտագ	-8876
▁ճշմարտ	-8877
▁Հնդկաստանում	-8878
▁Կախ	-8879
▁ուժը	-8880
▁Times	-8881
ավազանը՝	-8882
Пб	-8883
▁ինտերն	-8884
▁Աջ	-8885
ream	-8886
▁մամուլի	-8887
▁շինարարության	-8888
▁Սանտա	-8889
▁Գիլ	-8890
կապես	-8891
▁անունից	-8892
we	-8893
վերի	-8894
րագր	-8895
▁ինտեգր	-8896
▁մեկուս	-8897
ոնտաժ	-8898
Այս	-8899
▁նախն	-8900
▁շրջագայ	-8901
այիս	-8902
▁Սկս	-8903
▁Կենտ	-8904
▁փաստը	-8905
լար	-8906
▁Ապրիլի	-8907
▁սակ	-8908
▁խրախ	-8909
pe	-8910
▁կայան	-8911
its	-8912
▁քարե	-8913
▁դիզայներ	-8914
աթոշ	-8915
▁ամենակար	-8916
անդացի	-8917
Հայրենի	-8918
▁սցենարիստներ	-8919
ենհ	-8920
▁ակադեմիան	-8921
▁Մեղ	-8922
▁փորձը	-8923
▁խոստովան	-8924
▁աղոթ	-8925
▁Գրիգորի	-8926
▁ակադեմիկոս	-8927
aul	-8928
▁Դեղ	-8929
тор	-8930
արբեք	-8931
իպլիկ	-8932
լիմպի	-8933
ուցում	-8934
) —	-8935
այնը	-8936
▁Ֆար	-8937
աբուժական	-8938
▁կազմակերպում	-8939
սեփ	-8940
րապարակ	-8941
▁տեղաշարժ	-8942
▁Կազմակերպ	-8943
րամի	-8944
▁Պորտ	-8945
▁ազատազրկ	-8946
▁ամսագիրը	-8947
ще	-8948
▁от	-8949
▁Օբի	-8950
ատրել	-8951
▁տեսական	-8952
▁իրավաբան	-8953
▁փիլիսոփա	-8954
▁առկայությունը	-8955
enn	-8956
▁սան	-8957
▁ցնց	-8958
▁պաշտոնյան	-8959
▁արտահայտված	-8960
▁Միկ	-8961
▁Մոլ	-8962
▁Տեխ	-8963
▁հուզ	-8964
ագանակ	-8965
▁թողարկվեց	-8966
ral	-8967
ինում	-8968
▁անգործ	-8969
▁տարածման	-8970
▁կլինիկական	-8971
)»	-8972
▁խոչընդոտ	-8973
right	-8974
Համախառն	-8975
շտաբ	-8976
ահետազոտական	-8977
ֆրեդ	-8978
▁ցուցակում	-8979
▁Գիր	-8980
▁Mag	-8981
▁Սագ	-8982
▁հանդիսացել	-8983
▁So	-8984
ենսիվ	-8985
▁Росси	-8986
▁Ամառային	-8987
▁մշակվել	-8988
▁հրաժարվում	-8989
▁աշխատելու	-8990
գո	-8991
▁անհատ	-8992
▁ավազանի	-8993
լատ	-8994
▁դեբյուտային	-8995
▁Իտալիա	-8996
այքի	-8997
▁էլեկտ	-8998
▁Արցախյան	-8999
րաչ	-9000
ոթոր	-9001
▁ստորագրել	-9002
▁ազդել	-9003
▁համընդհանուր	-9004
Աշխարհ	-9005
Ակ	-9006
ool	-9007
▁Վարդան	-9008
արևելքում	-9009
▁աշխատավարձ	-9010
ду	-9011
▁վիտ	-9012
ակոծ	-9013
▁Թուրքիայում	-9014
оз	-9015
▁զգում	-9016
պոլի	-9017
▁եզակի	-9018
ade	-9019
ավատ	-9020
▁Gro	-9021
ավելի	-9022
▁Հռոմում	-9023
▁առանձնանում	-9024
▁Qu	-9025
ution	-9026
ios	-9027
յե	-9028
մետ	-9029
ated	-9030
ավորիչ	-9031
▁հայեր	-9032
▁Ակադեմ	-9033
▁հերոսի	-9034
irl	-9035
▁Արդեն	-9036
▁նե	-9037
գոհ	-9038
)-	-9039
▁կինոփառատոնի	-9040
FF	-9041
▁կանացի	-9042
▁պատկանել	-9043
▁Երեխ	-9044
▁Սովորաբար	-9045
ակարգը	-9046
▁ազնվական	-9047
▁երեկոյան	-9048
ախջախ	-9049
▁Պակիստ	-9050
▁տեսանելի	-9051
ald	-9052
▁Այսօր	-9053
▁Կոբայ	-9054
icial	-9055
ատարածված	-9056
▁մասնակցեց	-9057
ոցային	-9058
▁շրջանային	-9059
▁մասնակցություն	-9060
▁պատրաստման	-9061
▁Mo	-9062
▁Համարվում	-9063
▁web	-9064
▁Փոխ	-9065
▁հաջողության	-9066
ովն	-9067
▁արտադրանքը	-9068
երց	-9069
ագին	-9070
▁Շեն	-9071
արանն	-9072
րաբար	-9073
▁ծագել	-9074
▁փնտրել	-9075
▁Սկավառակ	-9076
▁դպրոցներ	-9077
▁Հաղթ	-9078
▁Wind	-9079
▁գարնանը	-9080
▁Հոն	-9081
ահայաց	-9082
▁բույսեր	-9083
▁Աֆրիկայում	-9084
▁բարձրությամբ	-9085
Վալ	-9086
▁Արարատ	-9087
ՂՀ	-9088
▁$	-9089
դու	-9090
▁տիկ	-9091
▁հեռախոս	-9092
արաններում	-9093
▁հիդ	-9094
▁մակարդակ	-9095
▁օրգանական	-9096
▁Res	-9097
թոնը	-9098
▁բաժանվել	-9099
iam	-9100
Միջ	-9101
վիգ	-9102
▁պլանի	-9103
ուսում	-9104
ոքային	-9105
▁թարգմանիչներ	-9106
▁սահմաններում	-9107
ախց	-9108
терат	-9109
▁երգահան	-9110
▁ապրանքանիշ	-9111
▁At	-9112
▁եզրակաց	-9113
▁շինարարական	-9114
բերումներ	-9115
▁վերականգնման	-9116
▁մայրը՝	-9117
▁տեխնիկայի	-9118
թին	-9119
▁фи	-9120
ածավալ	-9121
▁ընկերների	-9122
▁Տալ	-9123
▁փորձի	-9124
▁նիստ	-9125
▁էթնիկ	-9126
▁հայրը՝	-9127
▁մել	-9128
ուղարկ	-9129
▁կատեգոր	-9130
▁ընթանում	-9131
ij	-9132
▁ոք	-9133
▁Անձինք	-9134
▁մրցակից	-9135
▁ռեժիսորներ	-9136
▁ժամանակներից	-9137
▁շարունակվում	-9138
▁տնտեսագիտության	-9139
▁ապրող	-9140
որդական	-9141
▁von	-9142
tor	-9143
▁վերարտ	-9144
ակայության	-9145
▁քաղաքակրթ	-9146
▁Հեմ	-9147
▁Սանդ	-9148
▁հրաձ	-9149
▁զգեստ	-9150
▁մահապատժի	-9151
▁ամենամյա	-9152
▁ֆունտ	-9153
▁Ш	-9154
▁ве	-9155
արիբ	-9156
▁տղան	-9157
▁Արիստ	-9158
▁փորձարկ	-9159
իցա	-9160
աձոր	-9161
▁տարրեր	-9162
ран	-9163
▁խառնուրդ	-9164
▁լյարդ	-9165
)]	-9166
▁ներառել	-9167
▁փողոցում	-9168
▁Ю	-9169
▁Օստ	-9170
աքարի	-9171
▁անձամբ	-9172
ողմանի	-9173
ավայրեր	-9174
▁բակալավրի	-9175
▁կիրառել	-9176
▁հաղթանակի	-9177
րետ	-9178
▁Սիբ	-9179
Առաջին	-9180
▁National	-9181
▁ճեղ	-9182
▁Հետո	-9183
▁կուր	-9184
▁գնալ	-9185
▁դիմում	-9186
мы	-9187
կինը	-9188
▁App	-9189
ունների	-9190
▁Երբեմն	-9191
▁համագործակցել	-9192
▁թել	-9193
▁չկան	-9194
ումբը	-9195
▁բողոքի	-9196
ку	-9197
ere	-9198
աբին	-9199
▁ներկայացնել	-9200
Նյու	-9201
▁շենքում	-9202
▁բանակում	-9203
▁սպանում	-9204
▁կայսրությունում	-9205
▁ժաման	-9206
▁հավատում	-9207
▁գանգ	-9208
▁հասնելու	-9209
▁Կոլումբիայի	-9210
▁Can	-9211
ամասի	-9212
▁պարբերական	-9213
եզոք	-9214
երիայի	-9215
uch	-9216
▁Հետագա	-9217
бо	-9218
▁ռեգ	-9219
աձուլ	-9220
▁Armen	-9221
▁ջախջախ	-9222
▁տասնամյակ	-9223
oman	-9224
արևմուտքում	-9225
▁ձևավորվում	-9226
▁ներկայացուց	-9227
ake	-9228
ose	-9229
▁Աստծո	-9230
ոխրագույն	-9231
որժ	-9232
▁Գագ	-9233
▁Արվեստի	-9234
▁Կիրովոգրադի	-9235
ուզի	-9236
▁կառավարում	-9237
аз	-9238
▁խմբին	-9239
▁Journal	-9240
▁տարրերի	-9241
▁ժամանակ՝	-9242
▁կինեմատոգրաֆ	-9243
Պետ	-9244
անիի	-9245
▁ստեղծվում	-9246
▁ներկայացման	-9247
▁Աֆղան	-9248
▁Հուլիսի	-9249
րանոց	-9250
inc	-9251
▁ալիքի	-9252
▁գաղափարախոս	-9253
գին	-9254
ԽՖՍՀ	-9255
լում	-9256
ելիության	-9257
▁պոչ	-9258
▁բժշկ	-9259
▁հիմքով	-9260
ապահական	-9261
▁Մուլտֆիլմ	-9262
се	-9263
▁Rem	-9264
իաընկեր	-9265
Կապ	-9266
▁Die	-9267
ենկոյի	-9268
▁Մերձավոր	-9269
Էդ	-9270
ղջ	-9271
ters	-9272
Հուն	-9273
բերը	-9274
▁Ջեն	-9275
յանին	-9276
▁տարածքային	-9277
ше	-9278
▁Mon	-9279
▁СПб	-9280
▁կարմ	-9281
▁կենտրոնը՝	-9282
Mar	-9283
եդա	-9284
▁Տաճ	-9285
▁դիրիժոր	-9286
▁հիմա	-9287
▁Դիրք	-9288
▁Կոմիտ	-9289
▁im	-9290
▁Я	-9291
rag	-9292
▁կոնգր	-9293
▁Բելառուսի	-9294
անտի	-9295
▁Պատր	-9296
▁նկարի	-9297
▁վարձավճար	-9298
▁Մասնավորապես	-9299
▁Առողջ	-9300
▁հրեշտ	-9301
▁դատարանը	-9302
ոկա	-9303
▁Եզ	-9304
պատմ	-9305
▁Թոր	-9306
▁զարկեր	-9307
ովնա	-9308
▁մաքուր	-9309
▁միացավ	-9310
անկարժեք	-9311
▁մանկավարժներ	-9312
▁որմն	-9313
▁քսան	-9314
па	-9315
▁Eng	-9316
▁Լիս	-9317
▁թագուհի	-9318
▁Վերածն	-9319
▁ձկնորս	-9320
▁Ալեքսանդրով	-9321
▁փառքի	-9322
▁ունեցան	-9323
▁հաճախակի	-9324
▁կուսակցական	-9325
lect	-9326
▁աղջիկների	-9327
▁միությունը	-9328
▁Ռադ	-9329
▁կամրջ	-9330
▁ծանոթացել	-9331
վածությունը	-9332
Մար	-9333
իմնազ	-9334
▁տոննա	-9335
▁Բավարիա	-9336
▁պատգամավորներ	-9337
▁փոխանցում	-9338
▁գազի	-9339
▁ճամփ	-9340
▁ավելին	-9341
▁գալու	-9342
▁թթված	-9343
▁Դրանցից	-9344
▁Աստվածածին	-9345
▁Մեքսիկայի	-9346
▁լատիներեն	-9347
▁Միտ	-9348
ստանում	-9349
▁գեղեցկ	-9350
▁տղամարդու	-9351
ԱՆ	-9352
▁Սե	-9353
▁ցամաքային	-9354
▁Սոցիալիստական	-9355
▁Քեմ	-9356
քաղաքական	-9357
▁Սոմ	-9358
▁զվարճ	-9359
▁առևտրական	-9360
▁անվանումով	-9361
▁ամենահին	-9362
▁փառատոնի	-9363
▁տեղափոխել	-9364
▁Հայկ	-9365
▁տված	-9366
▁աստղերի	-9367
Ph	-9368
▁Քեթ	-9369
▁շոտլանդ	-9370
▁մրցանակների	-9371
▁Արշակ	-9372
▁հանձնել	-9373
▁հարվածային	-9374
▁Ag	-9375
▁տանի	-9376
▁սեղմ	-9377
CA	-9378
րոհ	-9379
▁ծրագրեր	-9380
Էմ	-9381
▁ծագմամբ	-9382
▁ժամանակով	-9383
хо	-9384
Բել	-9385
▁երգում	-9386
▁ստացվում	-9387
▁Նոյեմբերի	-9388
▁Կիպրոսի	-9389
▁ուկրաինական	-9390
Երևան	-9391
Կարմիր	-9392
▁ամփոփ	-9393
▁գեղանկարչության	-9394
րիզ	-9395
յուզիք	-9396
▁Լատվիայի	-9397
▁վերջնականապես	-9398
ադե	-9399
▁փայտե	-9400
▁վերջապես	-9401
ini	-9402
▁թաքց	-9403
▁թիմին	-9404
▁Հանդիպ	-9405
▁տվյալներով՝	-9406
▁Աճ	-9407
բերալ	-9408
▁դոկտորի	-9409
▁կատարելագործ	-9410
Օսկար	-9411
ություններ՝	-9412
քերին	-9413
▁ոլորտի	-9414
շչ	-9415
▁բաղադր	-9416
▁աջակցություն	-9417
icht	-9418
▁Լավ	-9419
▁Մադրիդ	-9420
▁Պատերազմի	-9421
▁նահանգապետ	-9422
ոկոլ	-9423
▁ճամբար	-9424
▁Սերբիայի	-9425
▁ապահովել	-9426
▁Վալերի	-9427
▁դժգոհ	-9428
▁պատմաբաններ	-9429
նկ	-9430
▁Սաֆ	-9431
երեն՝	-9432
▁միջնորդ	-9433
▁ղեկավարի	-9434
▁մարզական	-9435
▁փոխարինել	-9436
▁Բնակչությունը՝	-9437
երապ	-9438
▁ԳԱԱ	-9439
▁Եվրո	-9440
▁տնօրենի	-9441
▁լեզուներ	-9442
▁Լեոնիդ	-9443
▁Նիկոլաևի	-9444
▁կիրառում	-9445
▁Վենետիկ	-9446
առություն	-9447
եմմի	-9448
▁Զարգ	-9449
▁ժապավ	-9450
թուրքական	-9451
▁շրջակայքում	-9452
▁Շմ	-9453
скус	-9454
ագծով	-9455
▁խոսել	-9456
▁օտարերկրյա	-9457
▁Սավ	-9458
▁Սարգիս	-9459
▁երեխաներ	-9460
▁մատուցած	-9461
▁թույլտվ	-9462
ադատության	-9463
▁բարձրանում	-9464
անթի	-9465
VI	-9466
րանի	-9467
▁կողմի	-9468
ահանդես	-9469
▁բարբառ	-9470
Ջոն	-9471
ռուս	-9472
▁մասին՝	-9473
աշարը	-9474
▁ավանդույթ	-9475
▁x	-9476
ոմա	-9477
▁Քեյ	-9478
արիան	-9479
▁Cor	-9480
▁կյանքին	-9481
▁Հերցեգովին	-9482
քերն	-9483
▁Ելենա	-9484
▁շրջապատված	-9485
Այն	-9486
եյան	-9487
յալի	-9488
▁պալատում	-9489
արվեստական	-9490
▁վիճակագրական	-9491
նով	-9492
▁ցր	-9493
▁խիտ	-9494
▁Սիմոն	-9495
Իս	-9496
▁Թամ	-9497
րանտ	-9498
ունին	-9499
▁պատվիրակ	-9500
▁Եվրոպա	-9501
▁պատկերը	-9502
▁th	-9503
ողին	-9504
րապիզ	-9505
ography	-9506
▁Մելիք	-9507
րոպոլիտ	-9508
▁առաջնությանը	-9509
▁չվ	-9510
▁Հոլիվ	-9511
▁բաս	-9512
▁Ռուսաստանը	-9513
▁պատի	-9514
▁Էռն	-9515
val	-9516
▁երաշխ	-9517
▁կայսեր	-9518
▁հավերժ	-9519
▁արևելքում	-9520
▁ред	-9521
▁Պիեռ	-9522
▁դեռահաս	-9523
▁վաճառել	-9524
▁վերականգնում	-9525
tics	-9526
▁Միխայլ	-9527
▁ամուսինը	-9528
▁վնասվածք	-9529
անունը	-9530
▁Լուիս	-9531
▁ճանաչված	-9532
▁Պուտ	-9533
▁հետևել	-9534
▁Դոր	-9535
▁ենթակա	-9536
able	-9537
▁օսմանյան	-9538
▁զենքի	-9539
▁վիպասաններ	-9540
port	-9541
▁դավաճ	-9542
▁ավարտը	-9543
▁արշավանք	-9544
▁նամականիշ	-9545
зы	-9546
ամենտ	-9547
▁ալիք	-9548
▁օքսիդ	-9549
Իտ	-9550
▁un	-9551
ree	-9552
ախմատի	-9553
▁Արագած	-9554
нциклопедия	-9555
▁հազարավոր	-9556
մեջ	-9557
▁Նիգ	-9558
▁նաև՝	-9559
▁արական	-9560
▁շարժում	-9561
անակը	-9562
IT	-9563
երի՝	-9564
▁թալ	-9565
▁համահեղինակ	-9566
мо	-9567
▁ձեռքի	-9568
մահու	-9569
Sc	-9570
▁սուբյ	-9571
▁Film	-9572
▁կապեր	-9573
▁ձայնը	-9574
▁տղամարդիկ	-9575
▁нау	-9576
▁Վարշավ	-9577
▁վերածվել	-9578
зи	-9579
ius	-9580
աշա	-9581
ոբի	-9582
▁Թեհ	-9583
▁կերակ	-9584
▁ամենաշատ	-9585
▁քաղաքացիների	-9586
▁անցկացնել	-9587
▁հեղինակային	-9588
ալթ	-9589
▁ԵՄ	-9590
իանալի	-9591
▁հունարեն	-9592
▁ՖԻ	-9593
▁գրավեց	-9594
▁Անջելես	-9595
եգին	-9596
▁NBA	-9597
▁բարակ	-9598
▁Կանադայում	-9599
▁դինաստիայի	-9600
ոների	-9601
ակամ	-9602
▁ներքև	-9603
▁ՅՈՒՆԵՍԿՕ	-9604
լոն	-9605
▁Իրավ	-9606
▁Խորեն	-9607
արկտ	-9608
զբեկ	-9609
▁Կազմավորվել	-9610
▁Մն	-9611
▁կարծես	-9612
▁ներառվել	-9613
ադը	-9614
▁սահմանը	-9615
▁գիտահետազոտական	-9616
▁ռեֆ	-9617
▁բացառիկ	-9618
ամիտ	-9619
պոզիտոր	-9620
▁խաղերին	-9621
▁ընդունեց	-9622
▁Նիդերլանդների	-9623
▁իրագործ	-9624
▁ազդեցությամբ	-9625
ոմոն	-9626
▁օրհ	-9627
▁վերել	-9628
աւ	-9629
▁գյուտ	-9630
▁պտուղ	-9631
▁պորտուգ	-9632
▁առողջապահության	-9633
▁Գեղարք	-9634
▁մեթոդը	-9635
ատերական	-9636
▁Ելիզավետ	-9637
▁անվանման	-9638
▁ստրկ	-9639
▁Երկեր	-9640
▁իրենք	-9641
տոմ	-9642
ուրին	-9643
անքային	-9644
▁մրցակց	-9645
▁սահմանափակում	-9646
ոֆիլ	-9647
▁դեֆ	-9648
▁դիրքորոշ	-9649
Ֆիլմ	-9650
▁Վեստ	-9651
▁ջարդ	-9652
▁Լոռու	-9653
▁ասպարեզ	-9654
▁ժառանգություն	-9655
ры	-9656
▁ինտենսիվ	-9657
▁օգտագործվող	-9658
VD	-9659
ble	-9660
ster	-9661
▁Լոմբ	-9662
▁ձեռագրեր	-9663
▁բացառությամբ	-9664
▁Բաղդ	-9665
▁Պաղեստ	-9666
▁Ամբողջ	-9667
▁թարգմանվել	-9668
▁ազատագրական	-9669
%)	-9670
ey	-9671
յով	-9672
▁Pl	-9673
▁Արկ	-9674
▁խոց	-9675
▁ազգերի	-9676
▁Բազ	-9677
▁Պյոտր	-9678
▁Դրան	-9679
ano	-9680
▁քառորդ	-9681
▁Դրամ	-9682
▁Թատրոնի	-9683
▁եկան	-9684
▁մերկ	-9685
▁գտնվելու	-9686
▁անձրև	-9687
▁դարեր	-9688
▁ծնված	-9689
▁ջուրը	-9690
▁իրականացման	-9691
▁վերականգնել	-9692
▁Քրիստոսի	-9693
▁տրանսպորտային	-9694
▁տեսքը	-9695
սպիտակ	-9696
▁Բոսնիա	-9697
ակտոր	-9698
աբնույթ	-9699
▁Դանիել	-9700
▁վերաբերվում	-9701
Wh	-9702
▁Կուզ	-9703
▁սինգլներ	-9704
յանն	-9705
▁շարժվում	-9706
▁բերված	-9707
▁Անհրաժեշտ	-9708
իփ	-9709
▁ձեռքը	-9710
▁սյուն	-9711
▁սովորելու	-9712
ուշակագույն	-9713
▁արքայադուստր	-9714
za	-9715
փոխ	-9716
աշնորհ	-9717
արբերդի	-9718
▁իմաստով	-9719
▁արտիստներ	-9720
site	-9721
веде	-9722
▁Գավառ	-9723
▁չունեց	-9724
ավարությունը	-9725
▁հիմնադիրներից	-9726
▁ավստր	-9727
աներում	-9728
▁հաշվին	-9729
▁Կալիֆոռ	-9730
▁դատախազ	-9731
▁Pictures	-9732
▁վայրկյան	-9733
▁Իսլամ	-9734
▁այբուբ	-9735
▁թվաքանակը	-9736
▁Բնակավայրի	-9737
oft	-9738
▁տող	-9739
▁ակադեմիա	-9740
▁հովանավորն	-9741
▁նահ	-9742
▁բառից	-9743
нии	-9744
անքով	-9745
▁Ստեփան	-9746
▁բառերը	-9747
▁դիրքում	-9748
▁տեսակները	-9749
▁ձևերի	-9750
յանների	-9751
▁պայմանների	-9752
▁Po	-9753
▁Ոսկ	-9754
իզումի	-9755
▁Լինդ	-9756
▁դրամական	-9757
▁արտադրական	-9758
ովոյի	-9759
▁ձևավորում	-9760
▁Ամուսնացած	-9761
▁պահպանության	-9762
sc	-9763
▁Վեպ	-9764
իներում	-9765
▁Սեյ	-9766
սե	-9767
Նախ	-9768
ենից	-9769
▁():	-9770
▁դրել	-9771
▁Բժշկական	-9772
▁հանրահ	-9773
▁քոլեջում	-9774
Bl	-9775
▁pro	-9776
▁պրոտ	-9777
▁քրոն	-9778
▁խաչքար	-9779
▁սերիալում	-9780
չեսթեր	-9781
▁չուներ	-9782
▁պաշտոնից	-9783
▁եղբայրների	-9784
աղց	-9785
▁Arch	-9786
▁տեսակը	-9787
▁պայքարը	-9788
▁գրասենյակ	-9789
Ամեն	-9790
▁գոտի	-9791
▁Էլիզաբեթ	-9792
▁Կն	-9793
▁Մարգ	-9794
▁առիթ	-9795
ույթում	-9796
պր	-9797
▁Օիզումի	-9798
▁Ինգ	-9799
▁մարդ՝	-9800
▁վերամշակ	-9801
▁Տիտ	-9802
▁դրված	-9803
▁շտաբի	-9804
▁Սահակ	-9805
▁Երաժշտ	-9806
▁Ռազմական	-9807
▁արված	-9808
▁խճ	-9809
▁նախագիծ	-9810
սմ	-9811
▁էի	-9812
նչյուն	-9813
▁ձեռագր	-9814
▁Գաբրիել	-9815
▁Tw	-9816
▁Վիս	-9817
արները	-9818
▁նվազում	-9819
▁գնահատել	-9820
app	-9821
▁թվերի	-9822
▁ռիսկի	-9823
րոդյուսեր	-9824
▁մայրաքաղաքը	-9825
же	-9826
▁նավատորմի	-9827
▁թվականները	-9828
▁Կոնգր	-9829
▁Դամ	-9830
▁չեմ	-9831
▁Աշոտ	-9832
▁գունավոր	-9833
ԽՍՀՄ	-9834
իկներով	-9835
▁ձևաչափ	-9836
▁հեղաշրջ	-9837
▁ստամ	-9838
▁հոլով	-9839
աբանում	-9840
▁ագրես	-9841
բեկ	-9842
▁պալատը	-9843
ասեռ	-9844
▁Գյուղի	-9845
▁փաստացի	-9846
▁Փետրվարի	-9847
▁Բեռն	-9848
▁կերպարի	-9849
եվրոպական	-9850
▁թարգմանել	-9851
▁հիդր	-9852
▁տևում	-9853
ակներից	-9854
▁նորաձևության	-9855
զգ	-9856
▁միզ	-9857
▁այլընտրանք	-9858
Օլ	-9859
▁գնդապետ	-9860
իմալ	-9861
▁սանդ	-9862
արարների	-9863
over	-9864
ոքսի	-9865
▁Անց	-9866
▁Բալթ	-9867
▁խոսքի	-9868
▁թողարկման	-9869
տած	-9870
անսի	-9871
▁մանգ	-9872
▁դիպլոմ	-9873
արբեքիրի	-9874
▁ինտեր	-9875
ակալի	-9876
▁թագուհու	-9877
իրա	-9878
▁Կո	-9879
իտերի	-9880
▁Հետաքրքիր	-9881
▁Շոտլանդիայի	-9882
ելտ	-9883
իլեր	-9884
▁կատարող	-9885
▁թողնելով	-9886
▁ստեղծումը	-9887
▁լուսանկարիչ	-9888
▁կատակերգական	-9889
▁ծխախ	-9890
▁դիրքը	-9891
Պար	-9892
▁օժտված	-9893
▁բնութագրվում	-9894
Խաղ	-9895
ուղթ	-9896
▁Կիմ	-9897
▁ակց	-9898
▁Սինգլ	-9899
▁ավաններ	-9900
▁թողարկում	-9901
▁“	-9902
▁ընդունվեց	-9903
ոսոմ	-9904
▁Բոստ	-9905
անազան	-9906
▁շուկայի	-9907
պատերազմ	-9908
▁հոգեբանության	-9909
ինե	-9910
▁անց՝	-9911
▁Բովանդակ	-9912
▁Նադ	-9913
▁կողմնորոշ	-9914
▁գործունեությամբ	-9915
▁գործիքների	-9916
ember	-9917
▁մաթեմատիկայի	-9918
▁Со	-9919
▁ամպ	-9920
▁Իբ	-9921
ши	-9922
▁եկեղեցում	-9923
ատալյա	-9924
▁բնակվել	-9925
▁իսպանացի	-9926
▁լա	-9927
խում	-9928
▁հասնելով	-9929
ովսկու	-9930
▁այդքան	-9931
▁առաջացնել	-9932
ene	-9933
րիչ	-9934
ուկներ	-9935
▁բնակեցված	-9936
▁կարճամետրաժ	-9937
red	-9938
որների	-9939
background	-9940
▁Թվ	-9941
▁Տոկի	-9942
▁ցեղի	-9943
▁իսլամական	-9944
▁խաղերը	-9945
▁նկատվում	-9946
▁նկարների	-9947
▁օբյեկտների	-9948
▁ամուսնության	-9949
ux	-9950
▁or	-9951
▁Գաղ	-9952
▁մոռ	-9953
▁գավաթակիր	-9954
▁անօր	-9955
▁եթերաշրջան	-9956
▁յուրաքանչյուրը	-9957
AU	-9958
կեն	-9959
▁Մերկ	-9960
▁սերնդի	-9961
օրինակում	-9962
▁արևմուտքում	-9963
oth	-9964
▁Հիթ	-9965
Ամերիկ	-9966
▁խորհրդանշում	-9967
▁Met	-9968
▁Հայպետ	-9969
▁փոստային	-9970
▁հիշեցնում	-9971
▁հիվանդությունը	-9972
▁մոտ՝	-9973
▁Քրիստոն	-9974
նո	-9975
▁Բաքվի	-9976
▁մենամարտ	-9977
▁We	-9978
▁այցելում	-9979
▁աշխատության	-9980
դե	-9981
շին	-9982
▁թողնել	-9983
▁էվոլյուց	-9984
▁հավաքականը	-9985
ազգի	-9986
▁Պարզ	-9987
▁սերտ	-9988
միլա	-9989
▁բակտերի	-9990
▁գրադարանի	-9991
▁Ле	-9992
▁Դատ	-9993
▁դիմանկարը	-9994
▁պարբերականներ	-9995
▁օդի	-9996
րաճանաչ	-9997
▁մայրցամաք	-9998
▁Հովսեփ	-9999
▁Վոլինի	-10000
ֆա	-10001
IS	-10002
▁Բաթ	-10003
իային	-10004
▁պարունակող	-10005
▁արժանի	-10006
▁վճարել	-10007
▁գլուխը	-10008
▁իրավաս	-10009
ացուն	-10010
▁շտապ	-10011
▁թողարկեց	-10012
▁պատանեկան	-10013
▁Թագավորական	-10014
▁Սենտ	-10015
▁զարդարված	-10016
▁վերաբերող	-10017
ԳՆ	-10018
style	-10019
▁սյու	-10020
▁Մարտիր	-10021
էլեկտր	-10022
ժամանակ	-10023
▁տնտեսագետ	-10024
ադարի	-10025
На	-10026
▁օծ	-10027
▁հերոսը	-10028
▁միախառն	-10029
els	-10030
▁Օսկար	-10031
ածածկ	-10032
սպասելի	-10033
▁դրանցից	-10034
▁դերեր	-10035
Վլադիմիր	-10036
▁Հունիսի	-10037
▁դաշտում	-10038
▁նշանակել	-10039
▁ծրագրային	-10040
ՏՕ	-10041
▁պետությունը	-10042
ներս	-10043
▁հաստատված	-10044
▁մշակույթը	-10045
▁Տիմ	-10046
▁Հիր	-10047
талог	-10048
▁վարչապետի	-10049
ուցի	-10050
▁կնոջը	-10051
▁Կոզ	-10052
▁Հեռուստատես	-10053
▁ներկայացրեց	-10054
ակու	-10055
արիի	-10056
▁կավ	-10057
▁Ստանի	-10058
▁Շիրակի	-10059
ակալության	-10060
▁ճանապարհի	-10061
▁արվեստների	-10062
եթում	-10063
()	-10064
պրես	-10065
▁հայտարարում	-10066
ինչպես	-10067
վալ	-10068
▁սահմանել	-10069
ելյ	-10070
▁Op	-10071
▁հետաքրքրություն	-10072
▁Պրահ	-10073
արյանի	-10074
▁գումարը	-10075
▁Կով	-10076
▁Դվինա	-10077
▁Շրջկենտրոնն	-10078
▁սեփականատեր	-10079
▁մունիցիպալ	-10080
▁հանդիսատեսի	-10081
▁եղանակով	-10082
▁հեռախոսային	-10083
▁при	-10084
▁Փաստ	-10085
▁նավի	-10086
▁վանքեր	-10087
ածովային	-10088
▁հրաժարական	-10089
առաջին	-10090
ուրգեն	-10091
▁վարդապետ	-10092
▁կինոդերասաններ	-10093
▁թագավորությունը	-10094
▁բոլ	-10095
▁Ձեռք	-10096
▁տնտեսություն	-10097
BS	-10098
այլի	-10099
▁գրքերը	-10100
արտակ	-10101
▁շվեյց	-10102
▁հակա	-10103
▁Պողոս	-10104
▁նվագել	-10105
▁կենտրոնից	-10106
▁թավ	-10107
անհ	-10108
իկոն	-10109
▁Բրան	-10110
որային	-10111
ակնային	-10112
▁Հրատարակ	-10113
ելով՝	-10114
▁հայերը	-10115
▁Սիթի	-10116
▁գայլ	-10117
▁Museum	-10118
▁եկած	-10119
▁Ֆրանսիան	-10120
▁հանրության	-10121
▁Ջեֆ	-10122
▁ձայների	-10123
Տվյալ	-10124
▁կադր	-10125
ոսների	-10126
▁Զոր	-10127
▁արխիվ	-10128
▁տիկին	-10129
▁բի	-10130
▁հանդերձ	-10131
AR	-10132
եղային	-10133
▁արծաթ	-10134
▁Կրասնոդ	-10135
▁գիմնազ	-10136
▁գործար	-10137
▁րոպեին	-10138
▁Բո	-10139
այրի	-10140
▁Փիլիսոփ	-10141
▁մեքենան	-10142
ерб	-10143
անմուշ	-10144
▁Ջոզեֆ	-10145
▁լեռների	-10146
▁աճող	-10147
▁Հարվարդի	-10148
▁վերնագրով	-10149
եմբրի	-10150
▁Scien	-10151
▁եվրոպ	-10152
▁փոխվել	-10153
անիչ	-10154
▁վրեժ	-10155
▁կրկնօրինակ	-10156
ky	-10157
ուշտ	-10158
▁ձեռքով	-10159
▁Pe	-10160
▁վերջը	-10161
▁եք	-10162
▁բռնցք	-10163
▁փիլիսոփաներ	-10164
▁պատկերասրահում	-10165
rad	-10166
▁թմբ	-10167
fo	-10168
▁բեռ	-10169
▁պղնձ	-10170
▁կուրս	-10171
▁արվարձ	-10172
▁կիրառումը	-10173
▁Խորվաթիայի	-10174
▁գիտնականների	-10175
▁վեճ	-10176
▁Ալեքսանդրի	-10177
▁նշանակվում	-10178
▁խոհ	-10179
աժամի	-10180
▁վերև	-10181
ազգեստ	-10182
ел	-10183
անայի	-10184
▁ընկերություններ	-10185
▁չեզոք	-10186
ուկները	-10187
▁ամենակարևոր	-10188
▁ձևի	-10189
ement	-10190
▁սառույց	-10191
▁Լեզ	-10192
▁Թուն	-10193
▁լուծման	-10194
▁դեկորատիվ	-10195
երլ	-10196
ետնյա	-10197
▁քոլեջի	-10198
▁Phil	-10199
▁էական	-10200
▁հրավիրել	-10201
ոև	-10202
▁Բերն	-10203
▁Պորտուգալիայի	-10204
▁թիրախ	-10205
▁ուշադրության	-10206
▁Rad	-10207
Լեն	-10208
▁ինֆորմ	-10209
տարբեր	-10210
▁Մունիցիպալիտ	-10211
oss	-10212
ահիր	-10213
▁դաշնամուր	-10214
▁զարգացում	-10215
▁Երուսաղեմի	-10216
▁բառի	-10217
▁Սեբաստիայի	-10218
▁Վոլգ	-10219
▁հեշտությամբ	-10220
▁Կասպ	-10221
▁հրատ	-10222
▁սևամորթ	-10223
▁Բրիտանիա	-10224
▁Tr	-10225
▁ձգտ	-10226
▁հունգ	-10227
▁հացահատ	-10228
▁ստեղծած	-10229
▁դրոշմ	-10230
▁արձակագիր	-10231
esti	-10232
ույք	-10233
ավորելու	-10234
be	-10235
ven	-10236
▁բրիգ	-10237
▁հիշող	-10238
▁պարան	-10239
արե	-10240
▁Lib	-10241
▁Փորձ	-10242
▁լինեն	-10243
▁անվճար	-10244
▁Աշխատել	-10245
▁ամուսնությունը	-10246
▁VII	-10247
▁հաղթում	-10248
Էլեկտրոնային	-10249
▁հեղինակն	-10250
▁Հունաստանում	-10251
▁գծի	-10252
ության՝	-10253
▁ми	-10254
▁Քրիս	-10255
▁օգտին	-10256
▁կոնվենց	-10257
ոսլով	-10258
▁Դանիայի	-10259
▁հագուստի	-10260
▁արկածային	-10261
▁կառուցումը	-10262
▁եզրափակչում	-10263
▁Կու	-10264
▁Շեքսպ	-10265
▁վեցերորդ	-10266
ogle	-10267
▁զանազան	-10268
պահ	-10269
▁Պել	-10270
▁անմ	-10271
որենի	-10272
▁աղջկան	-10273
▁հարսանի	-10274
▁բնօրինակ	-10275
▁ծագումով	-10276
air	-10277
ատեքստ	-10278
▁ռեժիս	-10279
▁լրատվամիջոց	-10280
▁ин	-10281
▁դերաս	-10282
▁եռանկյուն	-10283
▁կդ	-10284
▁ռեստոր	-10285
▁Կլիմա	-10286
▁մարգար	-10287
▁գործիչների	-10288
▁Ուկրաինայում	-10289
▁ру	-10290
ատունը	-10291
ատվական	-10292
▁սուլթան	-10293
▁երկրներից	-10294
▁արտահայտվում	-10295
սկս	-10296
▁աջակցել	-10297
ya	-10298
ելֆ	-10299
▁ինչից	-10300
▁առաքելական	-10301
▁Ավստրալիայում	-10302
eral	-10303
▁կեսը	-10304
▁ամենատարածված	-10305
անության	-10306
▁լիարժեք	-10307
рос	-10308
թագ	-10309
▁անունը՝	-10310
▁ընտրվում	-10311
ato	-10312
անու	-10313
▁Ծառ	-10314
▁տեխնիկ	-10315
▁աղբյուրներ	-10316
ալտ	-10317
ովկասյան	-10318
▁զոհերի	-10319
▁խնդրել	-10320
▁Գեղարքունիքի	-10321
▁Գու	-10322
▁Ծով	-10323
▁տապալ	-10324
▁ցանցի	-10325
ուսիայի	-10326
▁Անատոլի	-10327
▁համացանց	-10328
omen	-10329
▁երիկամ	-10330
▁հերոսների	-10331
▁սահմանակից	-10332
▁տոկոսը	-10333
▁քեզ	-10334
▁հնար	-10335
▁նուրբ	-10336
▁հեռուստասերիալի	-10337
յի	-10338
▁հրահանգ	-10339
▁Կոբայաշի	-10340
▁այդպիսով	-10341
арь	-10342
▁կոշտ	-10343
▁զինվորների	-10344
▁տարածության	-10345
оло	-10346
եվեր	-10347
▁Նամ	-10348
▁Շուշ	-10349
▁գլխի	-10350
վագյուտ	-10351
ном	-10352
▁Չիլ	-10353
▁Ջուլ	-10354
▁ասպիրանտ	-10355
▁ուղարկվել	-10356
▁ռազմաճակատ	-10357
anc	-10358
▁մարգ	-10359
▁Day	-10360
▁Բարբ	-10361
▁իրավիճակը	-10362
Կոն	-10363
▁խեղ	-10364
բնակիչ	-10365
▁վերլուծության	-10366
ոդը	-10367
ոթատր	-10368
▁Եկեղեցին	-10369
ook	-10370
ատյանա	-10371
)`	-10372
lex	-10373
▁Լվ	-10374
▁ձայնագրել	-10375
▁Դեկտեմբերի	-10376
ոնից	-10377
▁One	-10378
▁արագությունը	-10379
▁Նև	-10380
▁Զաք	-10381
▁Էլի	-10382
▁Լիլ	-10383
ոմեն	-10384
▁художников	-10385
тер	-10386
ծառայ	-10387
▁ֆիլմն	-10388
▁ամուսին	-10389
▁հիմնվել	-10390
▁հավաքածուի	-10391
յանսկի	-10392
▁ջրամբ	-10393
▁Gl	-10394
tical	-10395
▁օկրուգի	-10396
▁բացառապես	-10397
▁ժամանակվա	-10398
▁Bro	-10399
▁Կիլիկիայի	-10400
▁ձգվում	-10401
En	-10402
մանդ	-10403
▁կայսրությունը	-10404
մուն	-10405
իդայի	-10406
յուրի	-10407
▁փոխվում	-10408
▁համերգային	-10409
▁Բիթլիսի	-10410
▁Հայպետհրատ	-10411
▁պայմանները	-10412
▁մանրանկար	-10413
▁Ձմեռ	-10414
▁Սթիվեն	-10415
▁գնացել	-10416
▁մասնակի	-10417
▁Քույր	-10418
▁ծայրամաս	-10419
▁is	-10420
▁մկ	-10421
tions	-10422
▁սերը	-10423
▁ներգրավված	-10424
ient	-10425
ուդդ	-10426
օգտագործ	-10427
▁լեհական	-10428
tif	-10429
▁ապստամբության	-10430
▁կոնտ	-10431
▁պարս	-10432
▁դարձրել	-10433
▁համարժեք	-10434
եզը	-10435
ոլային	-10436
▁աստղի	-10437
▁Կյանքի	-10438
գեղ	-10439
▁թիմում	-10440
▁հակված	-10441
▁մուտքը	-10442
▁Գյուղատնտես	-10443
եգի	-10444
▁նկարները	-10445
մուտ	-10446
▁հեծել	-10447
▁հիմունք	-10448
▁հրամանագրով	-10449
նաև	-10450
▁քրոմ	-10451
ոպլ	-10452
▁Այր	-10453
▁անխ	-10454
ավորներ	-10455
▁մեղադր	-10456
▁Բատ	-10457
▁կենդանական	-10458
▁ղեկավարության	-10459
▁Սոն	-10460
▁հավատարիմ	-10461
▁Ուշ	-10462
ación	-10463
▁Մարմ	-10464
Sh	-10465
թափանց	-10466
▁Անկախ	-10467
Նիկոլ	-10468
▁Գոլդ	-10469
▁Այդպիսի	-10470
հեր	-10471
▁դուր	-10472
▁բացվում	-10473
▁սպասում	-10474
▁հանրահայտ	-10475
▁միավորում	-10476
վական	-10477
▁Ստոկ	-10478
ument	-10479
▁պատշ	-10480
▁Միաժամանակ	-10481
եդին	-10482
ատները	-10483
▁սցենարի	-10484
▁առաջարկեց	-10485
թթ	-10486
▁года	-10487
ակահար	-10488
▁միկրո	-10489
կովսկի	-10490
lection	-10491
▁թոռ	-10492
ոցներ	-10493
▁ֆակուլտետում	-10494
▁իզ	-10495
▁Ասկ	-10496
▁Will	-10497
▁թափվում	-10498
Մեր	-10499
▁քանակով	-10500
▁բաժանման	-10501
▁տվեցին	-10502
ря	-10503
▁ինը	-10504
▁Նշան	-10505
▁խաղարկ	-10506
▁Վիլհելմ	-10507
▁արվեստագետներ	-10508
▁առել	-10509
▁Քաղաքում	-10510
▁բանաստեղծական	-10511
ետիկական	-10512
▁հիանալի	-10513
▁սիմֆոնիկ	-10514
▁ընկերական	-10515
▁մեդալակիրներ	-10516
hel	-10517
рав	-10518
իպի	-10519
հիմ	-10520
▁Յուր	-10521
ճապ	-10522
▁արժեքավոր	-10523
ասահ	-10524
▁ամենից	-10525
▁առաջանալ	-10526
▁սպա	-10527
ազգիների	-10528
▁համաժողով	-10529
▁Հանս	-10530
▁պիեսի	-10531
▁բասկետբոլիստներ	-10532
ед	-10533
▁խնդրանք	-10534
▁հեթ	-10535
▁չպետք	-10536
▁օրգանիզմի	-10537
▁ակնհայտ	-10538
▁Նախագահի	-10539
▁թողարկված	-10540
▁աջակցությամբ	-10541
▁նշանակությունը	-10542
conom	-10543
▁բուժում	-10544
▁հետաձգ	-10545
օղ	-10546
▁Ab	-10547
▁հիշում	-10548
▁հրաժարվեց	-10549
▁Յուպ	-10550
▁Վագ	-10551
▁կնոջ՝	-10552
▁as	-10553
▁ձևափոխ	-10554
վածքային	-10555
▁Ֆոր	-10556
▁մտքի	-10557
աշրջանից	-10558
▁միջոցառումների	-10559
զա	-10560
▁Տան	-10561
▁բուն	-10562
▁դպրոցների	-10563
կառ	-10564
▁աթոռ	-10565
ург	-10566
ահանող	-10567
ադրությամբ	-10568
▁հաղորդում	-10569
▁Ass	-10570
▁Դյու	-10571
▁վանքը	-10572
▁Պարգևատր	-10573
յալը	-10574
ոտին	-10575
▁Ջեք	-10576
▁ատենախոս	-10577
▁Հոկտեմբեր	-10578
▁Բովանդակություն	-10579
▁Gal	-10580
ոսկոպ	-10581
▁Ռեժիսոր	-10582
▁կոլեկտիվ	-10583
▁հանգեցնել	-10584
եղը	-10585
▁ցիկ	-10586
▁Ավել	-10587
оп	-10588
berg	-10589
▁Նախկինում	-10590
▁զբաղեցրեց	-10591
led	-10592
ետեր	-10593
▁Դոլ	-10594
▁ծախսերը	-10595
եցնելով	-10596
ֆը	-10597
▁աղբյուրների	-10598
▁հաստատուն	-10599
ոսֆ	-10600
▁քաջ	-10601
▁ժամկ	-10602
ոցների	-10603
▁Մադրիդի	-10604
▁մեխանիկական	-10605
earch	-10606
րաման	-10607
▁բնիկ	-10608
▁պայթյուն	-10609
▁Քս	-10610
էներգ	-10611
▁անընդմեջ	-10612
▁անտառային	-10613
եցած	-10614
▁ուշ՝	-10615
▁դուքս	-10616
▁Հեյ	-10617
▁բռնության	-10618
▁անունն	-10619
ակտիվության	-10620
ՄԱ	-10621
ոհամ	-10622
▁լոգ	-10623
ապաստ	-10624
▁ռեժիմ	-10625
▁ոլորտներում	-10626
ave	-10627
оль	-10628
▁իգ	-10629
▁Համախառն	-10630
▁շինարարությունը	-10631
era	-10632
род	-10633
▁դարձնել	-10634
▁շաբաթվա	-10635
▁Կանտ	-10636
▁ասվում	-10637
▁առցանց	-10638
ision	-10639
▁գավաթը	-10640
▁Փար	-10641
▁շտաբ	-10642
▁հիշատակին	-10643
▁Անջելեսում	-10644
▁Իռլանդիայի	-10645
շիռ	-10646
▁դդ	-10647
Ազատ	-10648
ենտինա	-10649
գրկ	-10650
րոտ	-10651
▁Ձայն	-10652
աթեմատիկական	-10653
եսլավ	-10654
ահամալ	-10655
▁աքսոր	-10656
▁գործարանի	-10657
ոզը	-10658
iety	-10659
▁տոնը	-10660
▁բեմական	-10661
▁իմանում	-10662
Դոն	-10663
▁տարբերակում	-10664
▁Սբ	-10665
▁ՌԽՖՍՀ	-10666
▁Սուպեր	-10667
▁Աղբյուր	-10668
▁պատահական	-10669
▁տարեկանների	-10670
երսը	-10671
▁որակի	-10672
ադրաբար	-10673
▁դիվանագետ	-10674
ena	-10675
աչուս	-10676
ент	-10677
▁Լյուբ	-10678
▁դպրոցներում	-10679
tis	-10680
umb	-10681
▁չեխ	-10682
▁բամբ	-10683
▁Դոբ	-10684
ետրի	-10685
▁հոմ	-10686
Երկրորդ	-10687
ացիաներ	-10688
▁Պեկինի	-10689
▁ելնելով	-10690
▁Ми	-10691
▁Կոմի	-10692
ոռնիայի	-10693
▁Անտոնիո	-10694
▁ուսանողական	-10695
▁Թել	-10696
▁արտադրող	-10697
▁դաշնամուրի	-10698
եսն	-10699
▁Սքոթ	-10700
▁ձևավորված	-10701
▁նստած	-10702
ек	-10703
▁произ	-10704
▁հողերի	-10705
▁Վիետնամ	-10706
▁կոորդին	-10707
▁Գործունեություն	-10708
yl	-10709
ada	-10710
▁Med	-10711
▁տղա	-10712
▁ցող	-10713
իրյան	-10714
▁ՆԱՏՕ	-10715
ֆորմ	-10716
▁Ինդոն	-10717
▁Տավուշի	-10718
▁կառուցվածքային	-10719
▁մեռ	-10720
▁Քաղաքացիական	-10721
▁Օռ	-10722
▁կուն	-10723
▁Եփ	-10724
▁կոնֆլիկ	-10725
▁ռեժիսորը	-10726
▁To	-10727
աճարակ	-10728
▁մոդելներ	-10729
ելիքի	-10730
րանյութ	-10731
ցը	-10732
Բան	-10733
▁Windows	-10734
▁Կենդան	-10735
▁ժամացույց	-10736
▁արտացոլում	-10737
▁պատերազմների	-10738
իկտ	-10739
▁Ամերիկա	-10740
▁առաջացրել	-10741
▁հոտ	-10742
▁Ֆուտբոլի	-10743
էկ	-10744
ատիրական	-10745
▁Song	-10746
▁մասերի	-10747
▁ավերվել	-10748
▁ավազանը՝	-10749
▁ապահովելու	-10750
▁զգուշ	-10751
Տվյալներ	-10752
▁Ադրբեջանական	-10753
ակներում	-10754
▁մագնիսական	-10755
▁Ստեփանակերտ	-10756
▁տարով	-10757
▁մարդասպան	-10758
▁սլավ	-10759
գետնյա	-10760
▁մեծանում	-10761
▁տախտակ	-10762
▁գործարան	-10763
▁Գերմանիան	-10764
երկար	-10765
դայի	-10766
ուղեղի	-10767
▁Պետերբուրգում	-10768
▁Չոր	-10769
▁տնօրենը	-10770
▁քննադատության	-10771
▁Բրի	-10772
▁trans	-10773
աբորբ	-10774
ուչնի	-10775
աներից	-10776
Վարդ	-10777
▁վարձավճարով	-10778
▁մաքս	-10779
▁զբոսայգ	-10780
▁ստուդիայում	-10781
uf	-10782
▁Per	-10783
▁անպ	-10784
▁Cont	-10785
վածքով	-10786
▁հատակ	-10787
▁մանկության	-10788
XI	-10789
rit	-10790
▁Group	-10791
ստեղծ	-10792
▁վրաց	-10793
▁Քրիստիան	-10794
▁բանկային	-10795
▁ամուսնանում	-10796
իմբ	-10797
ֆրան	-10798
▁Լաս	-10799
▁անտիկ	-10800
▁բերվել	-10801
▁մարզային	-10802
▁առն	-10803
եմադրող	-10804
▁կատարելով	-10805
ագո	-10806
▁դղ	-10807
▁բեղ	-10808
ոքում	-10809
իներով	-10810
▁Տիեզեր	-10811
▁ընտրված	-10812
▁հանգիստ	-10813
ոյը	-10814
ովսկ	-10815
▁BBC	-10816
▁արմ	-10817
▁վրայ	-10818
▁օրական	-10819
▁Ֆրեդերիկ	-10820
▁հիշողության	-10821
▁DVD	-10822
▁որմնանկար	-10823
անցք	-10824
▁արևի	-10825
▁ընկերը	-10826
▁ճգնաժամի	-10827
▁փոխադարձ	-10828
▁կուսակցություն	-10829
ավաղ	-10830
▁կազմակերպման	-10831
▁տևել	-10832
▁մարդուն	-10833
▁մյուզիք	-10834
ба	-10835
աստատ	-10836
▁լսել	-10837
▁արևմտ	-10838
աթթու	-10839
▁Գանձ	-10840
▁Կովկասի	-10841
▁տեսարան	-10842
▁ֆիզիկոս	-10843
▁Բելգիայի	-10844
▁աշխարհիկ	-10845
▁Sing	-10846
▁Քարթ	-10847
ամիութենական	-10848
նը	-10849
▁Ժակ	-10850
եմատիկ	-10851
▁Նաուչնի	-10852
տնտեսական	-10853
▁Մովսես	-10854
енко	-10855
անկի	-10856
▁Star	-10857
▁հրատարակության	-10858
ator	-10859
▁Վերածննդի	-10860
եքսուալ	-10861
գյուղ	-10862
▁Time	-10863
▁Tour	-10864
նագույն	-10865
▁արքունի	-10866
▁թանկարժեք	-10867
երդ	-10868
▁խաղային	-10869
▁տատանվում	-10870
▁դատապարտվել	-10871
▁Խմբի	-10872
▁Կորե	-10873
▁փաստաբան	-10874
՛մ	-10875
▁խեց	-10876
▁շագանակ	-10877
▁նպատակներով	-10878
▁դարաշրջանում	-10879
со	-10880
ահայր	-10881
▁համբավ	-10882
▁Քրիստոֆ	-10883
▁հավաքում	-10884
▁համընկնում	-10885
▁Մատենադարանի	-10886
▁Ռում	-10887
▁սերբ	-10888
արև	-10889
▁շոգ	-10890
▁Արսեն	-10891
▁մեթոդներ	-10892
ари	-10893
▁մոլ	-10894
▁Թբիլիսիի	-10895
▁ժամանակից	-10896
▁գեղանկարիչ	-10897
▁սահմաններից	-10898
ավեպ	-10899
▁առատ	-10900
ставка	-10901
▁Վահան	-10902
▁Սինգապ	-10903
▁երկրները	-10904
▁կողմնակի	-10905
▁կենսագրական	-10906
▁ուլ	-10907
եղենի	-10908
▁բնապահպան	-10909
str	-10910
գան	-10911
▁Լիդ	-10912
▁աղվ	-10913
Աշխատ	-10914
▁Վուդ	-10915
▁հողերը	-10916
▁գիշերային	-10917
ամայի	-10918
▁Ճանապարհ	-10919
▁Վենետիկի	-10920
▁սառը	-10921
▁Ալֆրեդ	-10922
▁միջոցառումներ	-10923
▁Մատենադարանում	-10924
▁նվազել	-10925
▁ցեղերի	-10926
▁անսպասելի	-10927
Բոր	-10928
▁հասցե	-10929
▁սովետական	-10930
▁Հանդիսանում	-10931
ահավաք	-10932
▁Հատուկ	-10933
աշրջանների	-10934
▁համակարգեր	-10935
▁Թաթ	-10936
▁վիրուս	-10937
▁պարտվել	-10938
▁ֆերմենտ	-10939
▁բրազիլ	-10940
▁գրավոր	-10941
▁ձայնային	-10942
▁շարունակեց	-10943
▁հարևանությամբ	-10944
բախտ	-10945
օդային	-10946
▁գվարդ	-10947
▁թաղանթ	-10948
▁թերթում	-10949
▁կապիտան	-10950
▁վերականգնվել	-10951
անդալ	-10952
▁դեղոր	-10953
▁մտահոգ	-10954
▁հետաքրքիր	-10955
%։	-10956
ais	-10957
▁Քել	-10958
▁Պաշտպան	-10959
▁կառավարական	-10960
ցիայի	-10961
▁ինդեքսը	-10962
▁վերցնել	-10963
երյան	-10964
▁Սագրա	-10965
▁Միջերկր	-10966
gel	-10967
գերի	-10968
▁պրոֆեսորներ	-10969
▁Mic	-10970
առում	-10971
▁գրողի	-10972
▁վիտամին	-10973
▁բարձրություն	-10974
իո	-10975
րերի	-10976
▁Վիշն	-10977
▁լիգայում	-10978
Գրի	-10979
▁Միսս	-10980
▁բացման	-10981
▁թունավոր	-10982
՛չ	-10983
▁պրե	-10984
ապաշտ	-10985
▁մոլորակի	-10986
aus	-10987
tica	-10988
Գերմ	-10989
եմական	-10990
▁մշակված	-10991
▁արժանացավ	-10992
յեն	-10993
▁Ռոջ	-10994
ազգիներ	-10995
▁Տարածքը՝	-10996
alk	-10997
եյում	-10998
▁Պեչորա	-10999
▁խորհրդում	-11000
▁изд	-11001
▁փոխակերպ	-11002
span	-11003
▁Դին	-11004
▁ավետ	-11005
▁վտար	-11006
աչուսեթ	-11007
▁առաջնությունը	-11008
ike	-11009
ակարգում	-11010
▁Institut	-11011
Sp	-11012
book	-11013
անետ	-11014
▁Լիզ	-11015
ակներով	-11016
▁ստեղծմանը	-11017
▁Ռումինիայի	-11018
▁ալգոր	-11019
▁նավահանգիստ	-11020
ենների	-11021
ակողմյան	-11022
▁Bi	-11023
▁մեթոդների	-11024
MA	-11025
▁Im	-11026
outh	-11027
▁Girl	-11028
▁եկող	-11029
▁Black	-11030
▁էֆ	-11031
▁Հինգ	-11032
▁Վլադ	-11033
▁սեռի	-11034
▁բիզնեսի	-11035
▁տնտեսությունը	-11036
▁արվել	-11037
▁կառույցների	-11038
▁ռմբակոծ	-11039
▁թվականներից	-11040
▁մասնակիցների	-11041
▁ֆաշ	-11042
▁այլք	-11043
▁բալետ	-11044
▁խալիֆ	-11045
ադարում	-11046
▁ազատվել	-11047
▁անձնակազմի	-11048
LA	-11049
▁Գուդ	-11050
▁հոսանքի	-11051
▁օրենքով	-11052
▁թռչունների	-11053
աքսի	-11054
▁Ջեր	-11055
▁գլխավորում	-11056
ime	-11057
▁Սլ	-11058
ridge	-11059
▁վրացական	-11060
ավարություն	-11061
▁գործընթացի	-11062
▁Էպ	-11063
▁Դու	-11064
▁ասոց	-11065
▁Դևիդ	-11066
фициаль	-11067
▁անտես	-11068
ավայրում	-11069
▁Լեռնային	-11070
աձիգ	-11071
▁առարկա	-11072
▁ապահովման	-11073
▁սահմանադրական	-11074
▁գագաթնակ	-11075
▁գնդակահար	-11076
ագրությունների	-11077
▁կերպարներ	-11078
▁Կոկ	-11079
Բնակավայրի	-11080
▁Կալիֆոռնիայի	-11081
▁Հաշ	-11082
▁Ամրոց	-11083
▁համարյա	-11084
▁տրամադրել	-11085
▁սահմանները	-11086
օթ	-11087
.):	-11088
уры	-11089
վաճ	-11090
րոզ	-11091
▁գնահատվում	-11092
▁Comm	-11093
▁Յուլ	-11094
▁Օդես	-11095
▁մենեջ	-11096
▁ստիպում	-11097
▁թերակղզու	-11098
ոտան	-11099
ապեշտ	-11100
▁անվեր	-11101
▁պատրի	-11102
ավաթի	-11103
▁ռուբլի	-11104
րապիզոնի	-11105
▁հակառակորդի	-11106
rop	-11107
▁զարգացող	-11108
▁միջավայրում	-11109
իրան	-11110
▁Ալժ	-11111
▁Շալ	-11112
▁բարոյ	-11113
աշխատող	-11114
նայա	-11115
խային	-11116
▁առկայության	-11117
նած	-11118
▁Գն	-11119
ժիշկ	-11120
▁խորթ	-11121
▁առևանգ	-11122
▁Նախիջևանի	-11123
▁я	-11124
▁արքայի	-11125
.`	-11126
րախոս	-11127
▁հարցեր	-11128
▁վերածվում	-11129
▁նկարագրված	-11130
Սերգ	-11131
իսոն	-11132
▁հռոմե	-11133
Ժամանակ	-11134
▁Թիֆլիսի	-11135
▁տարաբնույթ	-11136
▁վերանվանվել	-11137
երենը	-11138
▁զգացող	-11139
ափոխանակ	-11140
▁հանձնվել	-11141
▁որակավորման	-11142
անախ	-11143
▁մթեր	-11144
▁հնչում	-11145
▁խմբային	-11146
▁հասցրել	-11147
▁անկում	-11148
AF	-11149
աքի	-11150
▁ex	-11151
▁հանել	-11152
▁աշխատանքներին	-11153
ССР	-11154
րիգինալ	-11155
▁պոտենցիալ	-11156
▁մակարդակով	-11157
ազը	-11158
▁երգիծ	-11159
▁արաբեր	-11160
▁պատկերում	-11161
▁Դեզ	-11162
▁երգել	-11163
▁տեսանյութ	-11164
stem	-11165
▁արտասան	-11166
▁հոդվածների	-11167
ert	-11168
▁շարժիչ	-11169
▁կոնստրուկ	-11170
ափորձ	-11171
▁գլխավորած	-11172
▁Ղազախստանի	-11173
▁տափ	-11174
▁Կարսի	-11175
▁դոլարի	-11176
▁Արարատի	-11177
▁Գրիգորյան	-11178
շնչ	-11179
ոկը	-11180
արտակի	-11181
▁ռմբարկ	-11182
▁Publish	-11183
▁կինոթատր	-11184
ates	-11185
չուհի	-11186
րանքի	-11187
▁Բեյր	-11188
▁գնդի	-11189
▁Անգլիա	-11190
ափոխական	-11191
ամոր	-11192
▁Օսկ	-11193
▁չեմպիոններ	-11194
▁շապ	-11195
▁Կերպ	-11196
▁հանդիսավոր	-11197
▁երկրորդական	-11198
▁Ռեդ	-11199
քույր	-11200
եցույց	-11201
թև	-11202
անգի	-11203
▁տիրակալ	-11204
▁Գիտությունների	-11205
▁Ջուլի	-11206
De	-11207
ևտ	-11208
Ուր	-11209
▁Հուս	-11210
▁այդտեղ	-11211
▁պատմել	-11212
▁ԱԺ	-11213
▁աղտոտ	-11214
են՝	-11215
▁աղմ	-11216
▁Մարս	-11217
▁շքեղ	-11218
եսուել	-11219
▁ռազմա	-11220
▁փոքրամասն	-11221
▁ռազմածովային	-11222
տե	-11223
լուս	-11224
▁դիֆ	-11225
Ազգային	-11226
▁թուրքեր	-11227
▁Պավլ	-11228
▁զրույց	-11229
▁գլոբուս	-11230
▁Հնդկական	-11231
▁տարբերակի	-11232
▁աշխատողների	-11233
▁Գա	-11234
▁Սաղ	-11235
եմենտ	-11236
ովսկին	-11237
▁այլոց	-11238
▁արդիական	-11239
▁էներգիան	-11240
շն	-11241
▁vol	-11242
▁ճահ	-11243
▁ողն	-11244
▁Վիքի	-11245
ստերդամ	-11246
Ատ	-11247
Եղ	-11248
հինգ	-11249
▁խնդրի	-11250
▁Պուշկինի	-11251
ella	-11252
▁շոուի	-11253
▁օրինակով	-11254
▁միջոցները	-11255
▁սահմանային	-11256
▁հայտարարվեց	-11257
▁կահ	-11258
▁հանուն	-11259
▁փախչել	-11260
▁տեխնիկան	-11261
▁գովազդային	-11262
ша	-11263
գել	-11264
▁Ռոբին	-11265
ԼՄ	-11266
ona	-11267
▁Բեք	-11268
▁այգի	-11269
անեկան	-11270
▁Տոլստ	-11271
▁կնքեց	-11272
▁հաշիվ	-11273
▁նկատելի	-11274
▁նյութերը	-11275
▁ինքնակենս	-11276
չյան	-11277
▁սրճ	-11278
▁Դիվան	-11279
▁կոմիքս	-11280
▁նախապես	-11281
▁Մարտակերտի	-11282
▁միջոցներով	-11283
ха	-11284
շաֆ	-11285
eter	-11286
սուլ	-11287
▁թիթ	-11288
▁շուկայում	-11289
ևիչի	-11290
▁ռեզ	-11291
▁Իսլանդ	-11292
▁փառատոն	-11293
▁Ստանիսլավ	-11294
▁Ձեռքբերումներ	-11295
ածի	-11296
▁Վիչ	-11297
աբարձ	-11298
▁լեռնագագաթ	-11299
շը	-11300
▁Ж	-11301
▁Մեսրոպ	-11302
▁բարձրան	-11303
▁պալատական	-11304
ունա	-11305
վածը	-11306
▁խաղաց	-11307
▁Մուրադ	-11308
▁ֆոր	-11309
▁կարգավորման	-11310
▁հեղինակների	-11311
▁Սիթ	-11312
▁հարցի	-11313
▁թուրքերի	-11314
▁արյունահոս	-11315
արդին	-11316
արանից	-11317
▁Հայդել	-11318
▁Հանդես	-11319
ari	-11320
▁ավազանում	-11321
▁տարօրինակ	-11322
▁Եգիպտոսում	-11323
վատ	-11324
▁օրգանների	-11325
ге	-11326
tive	-11327
▁Սից	-11328
▁փար	-11329
▁աուտ	-11330
▁հաշվետ	-11331
▁Company	-11332
▁հաղթանակը	-11333
իշի	-11334
▁ակտ	-11335
▁Քեմբրի	-11336
▁բարձրացել	-11337
▁նույնական	-11338
իմֆ	-11339
ille	-11340
ское	-11341
▁գույնը	-11342
▁ուղեղի	-11343
▁արվեստանոց	-11344
▁մաթեմատիկոս	-11345
▁Sec	-11346
▁մեծագույն	-11347
▁բարձրացման	-11348
▁միս	-11349
▁Պոպ	-11350
ալում	-11351
▁այգին	-11352
▁վայրէջ	-11353
▁Ստոկհոլ	-11354
▁Բեկ	-11355
▁Մազ	-11356
ադառն	-11357
▁լեյբ	-11358
▁շքերթ	-11359
▁փուլը	-11360
▁հսկողության	-11361
▁մեկնարկային	-11362
▁պաշտպանելու	-11363
▁երկարություն	-11364
ռեժիսոր	-11365
▁կինոռեժիսորներ	-11366
▁մասերը	-11367
▁միավորման	-11368
▁կլիման	-11369
ուհիների	-11370
▁փոխարինելով	-11371
▁ֆեն	-11372
▁արտադրում	-11373
ett	-11374
▁Play	-11375
▁պարտիզ	-11376
▁ծառայությունը	-11377
դիի	-11378
▁Սրբ	-11379
▁կարտ	-11380
▁Թագավորության	-11381
▁օձ	-11382
իներն	-11383
▁Ֆրենկ	-11384
▁անցնելով	-11385
▁պահպանողական	-11386
▁ар	-11387
▁խթ	-11388
▁Կուշ	-11389
ոռոգ	-11390
ուղու	-11391
▁պոեմ	-11392
▁կտավը	-11393
▁կերպարների	-11394
▁բյուզանդական	-11395
▁չեմպ	-11396
▁Մինաս	-11397
▁գրաքնն	-11398
LE	-11399
անչ	-11400
▁Էնդր	-11401
▁տատանում	-11402
▁ֆեդերացիայի	-11403
▁կոճ	-11404
▁կա՛մ	-11405
▁դանի	-11406
▁աշխատությունը	-11407
▁հիվանդանոցում	-11408
Կալ	-11409
▁Ուրուգ	-11410
▁էության	-11411
▁մեղավոր	-11412
ower	-11413
ature	-11414
▁Econom	-11415
New	-11416
▁Mad	-11417
▁քաղաքները	-11418
▁մոխրագույն	-11419
▁լվ	-11420
Դինամ	-11421
ծնվել	-11422
▁հազվագյուտ	-11423
▁կաս	-11424
Հյուսիս	-11425
▁կորցնում	-11426
és	-11427
▁Ալյ	-11428
▁Գուր	-11429
▁Իսահակ	-11430
▁TV	-11431
▁կպ	-11432
▁Կիս	-11433
Սպիտակ	-11434
▁литерат	-11435
▁հանրաճանաչ	-11436
ոշի	-11437
յուսի	-11438
կայուն	-11439
▁Գեորգ	-11440
յալները	-11441
▁նկարիչը	-11442
ատորիայում	-11443
▁ընդունման	-11444
сь	-11445
հարմ	-11446
▁Մեխ	-11447
▁Ֆեդ	-11448
▁պաս	-11449
▁Լյուքս	-11450
▁մեքենաների	-11451
▁դեպարտամենտ	-11452
Աս	-11453
ֆել	-11454
▁Вы	-11455
▁Օլեգ	-11456
▁Ֆինլանդիայի	-11457
▁պատճ	-11458
▁ազատագր	-11459
▁հաջողվեց	-11460
▁բացահայտել	-11461
▁քրիստոնյան	-11462
ԳԲ	-11463
▁վեբ	-11464
▁Կայս	-11465
▁Մեծի	-11466
աթան	-11467
անգը	-11468
տանշան	-11469
▁te	-11470
եցնող	-11471
ся	-11472
▁;	-11473
▁Մենդ	-11474
▁Բալկան	-11475
▁հաստատեց	-11476
▁ֆունկցիան	-11477
XV	-11478
Աշ	-11479
yan	-11480
▁ռիսկը	-11481
▁Արխանգել	-11482
igh	-11483
ափոր	-11484
աֆիզ	-11485
▁»	-11486
▁Ալթայի	-11487
▁գլոբալ	-11488
▁Էվ	-11489
▁ճեմ	-11490
▁աստիճանը	-11491
ոցենտ	-11492
▁պարային	-11493
բերտի	-11494
▁սնունդ	-11495
▁բուժումը	-11496
▁աշխատանքից	-11497
лав	-11498
▁Cal	-11499
▁Live	-11500
ոլետ	-11501
▁ատր	-11502
▁Սիրի	-11503
▁տպագր	-11504
▁ժամանել	-11505
▁հաղորդակց	-11506
▁հղիության	-11507
▁մասնավորապես՝	-11508
էն	-11509
▁փնտրում	-11510
▁ծրագրում	-11511
▁տեղեկատվություն	-11512
 (	-11513
կովի	-11514
▁փոխհար	-11515
▁գրադարանը	-11516
▁պատրաստվել	-11517
▁գաղափարները	-11518
վեժ	-11519
▁РС	-11520
ագոն	-11521
▁անսամբ	-11522
▁Իսպանացի	-11523
▁օրացույց	-11524
▁այնուհետև՝	-11525
▁Թրամ	-11526
▁произведе	-11527
▁Սկզբնական	-11528
▁ձորի	-11529
▁Բունդ	-11530
▁կոմպլ	-11531
▁Տերև	-11532
▁հորեղ	-11533
▁քաղցր	-11534
▁ենթարկել	-11535
սև	-11536
թով	-11537
իրո	-11538
▁կոմպ	-11539
▁Վայոց	-11540
▁ձայնի	-11541
ազարյան	-11542
▁բառացի	-11543
ապան	-11544
▁ոման	-11545
ուցման	-11546
▁հավատարմ	-11547
▁ստեղծելով	-11548
▁դիվանագետներ	-11549
▁Կառլոս	-11550
▁եգիպտական	-11551
▁con	-11552
▁Ռեն	-11553
▁Սպան	-11554
▁թեմի	-11555
▁նկարում	-11556
ամն	-11557
▁Պեդ	-11558
▁կանչ	-11559
▁արձանը	-11560
▁պարսկական	-11561
▁բուդդ	-11562
▁համահ	-11563
▁պատկերել	-11564
▁ամենախոշոր	-11565
лекс	-11566
յույ	-11567
▁մոտակա	-11568
▁կինոյում	-11569
▁Լենինգրադ	-11570
▁գերագույն	-11571
արկվել	-11572
▁Խուան	-11573
▁շենքերի	-11574
са	-11575
adem	-11576
արենը	-11577
ոքոստ	-11578
▁Գրին	-11579
▁զգայուն	-11580
ФСР	-11581
▁Էլեկտր	-11582
▁ենթադրվում	-11583
▁Հերցեգովինայի	-11584
enti	-11585
▁hist	-11586
▁Պլատ	-11587
▁Սթեն	-11588
▁բառերի	-11589
▁պատված	-11590
▁աջակցության	-11591
▁ադրբեջանական	-11592
անդա	-11593
▁Nor	-11594
ախաղի	-11595
▁մղոն	-11596
Ընդ	-11597
▁Աթեն	-11598
▁Օլգա	-11599
▁ներդրում	-11600
▁բնակչություն	-11601
լենդի	-11602
արյանը	-11603
▁կրոնի	-11604
▁պարտության	-11605
▁մասնագիտացված	-11606
եթվեր	-11607
▁РСФСР	-11608
րատարակ	-11609
▁առանձնահատուկ	-11610
ean	-11611
▁սել	-11612
ավորի	-11613
▁Your	-11614
▁կոնֆերանս	-11615
▁շրջաններից	-11616
▁ուկրաինացի	-11617
▁Այգ	-11618
ելային	-11619
▁խմիչ	-11620
▁մանդ	-11621
▁գծային	-11622
▁նախատիպ	-11623
▁ներուժի	-11624
▁զավթ	-11625
▁իսրայ	-11626
▁Մարսել	-11627
▁Միջերկրական	-11628
▁մագիստրոսի	-11629
ün	-11630
որմալ	-11631
▁փոխհատ	-11632
ii	-11633
urn	-11634
▁Բակ	-11635
▁պոլիտ	-11636
անգլերեն	-11637
▁արագորեն	-11638
▁սպառնալի	-11639
▁թմրանյութ	-11640
▁е	-11641
ելիի	-11642
▁արթն	-11643
▁կոմիս	-11644
▁Մունիցիպալիտետը	-11645
▁հյուսիսարևելյան	-11646
▁Ռոք	-11647
▁Վրաստ	-11648
▁մտածում	-11649
▁հանդիպող	-11650
ca	-11651
▁խռ	-11652
Սերգեյ	-11653
ևմուտքից	-11654
▁բանասիրական	-11655
իզախ	-11656
▁երկկ	-11657
▁պատիժ	-11658
▁պարզել	-11659
▁կազմակերպվել	-11660
▁շրջանառության	-11661
ավիրի	-11662
▁Աման	-11663
իլիայի	-11664
▁զույգը	-11665
▁Ատլանտյան	-11666
▁դեպքեր	-11667
▁իգական	-11668
▁Մագն	-11669
▁զանգվածի	-11670
ք՝	-11671
▁Հնարավոր	-11672
▁հրավիրվել	-11673
arm	-11674
▁Հաբ	-11675
▁Books	-11676
Про	-11677
ղթեր	-11678
▁Հունվարի	-11679
▁ձևեր	-11680
▁շրջանները	-11681
вер	-11682
▁Աբդուլ	-11683
▁Բագրատուն	-11684
▁Կուլ	-11685
▁թենիս	-11686
▁անցկացվող	-11687
▁հատկությունները	-11688
▁մուլտիպլիկ	-11689
ալբ	-11690
▁էլ՝	-11691
ովում	-11692
ուղին	-11693
▁Տնտեսական	-11694
▁գնահատական	-11695
elle	-11696
▁Բախ	-11697
▁կայանում	-11698
երին՝	-11699
▁մոդելի	-11700
ula	-11701
CO	-11702
rs	-11703
ста	-11704
ալք	-11705
▁Աղջ	-11706
▁Remix	-11707
▁Հոլանդ	-11708
▁մոնղոլ	-11709
▁Սադ	-11710
հատական	-11711
▁համարի	-11712
▁նկատել	-11713
▁դառնալու	-11714
▁անունները	-11715
▁թխ	-11716
ապատկ	-11717
▁խոսքով	-11718
▁մոդելը	-11719
վածի	-11720
անդշաֆ	-11721
▁մեթոդները	-11722
րդի	-11723
▁թփ	-11724
▁հնգ	-11725
▁ֆունկցիոնալ	-11726
▁ֆանտաստիկ	-11727
▁Աբխազ	-11728
▁երգով	-11729
▁տեքստը	-11730
▁հյուրընկալ	-11731
ks	-11732
ман	-11733
▁ԶԼՄ	-11734
:#	-11735
▁ч	-11736
inn	-11737
նաձ	-11738
ages	-11739
յոնի	-11740
▁կազ	-11741
▁Սվետ	-11742
▁քիմիայի	-11743
իտիվ	-11744
▁Վիբ	-11745
▁կրծք	-11746
▁Каталог	-11747
մունքների	-11748
դես	-11749
ուրյան	-11750
ցիների	-11751
▁բնույթը	-11752
▁արգելված	-11753
▁ժողովածուի	-11754
ume	-11755
եզիա	-11756
▁Ռեալ	-11757
▁ռադիոկ	-11758
▁պատկերաց	-11759
յար	-11760
▁Օզ	-11761
▁հետևից	-11762
▁տարատեսակ	-11763
ole	-11764
ելիքս	-11765
▁Պատվո	-11766
▁ձմռանը	-11767
▁անգործունակ	-11768
իպս	-11769
uper	-11770
▁слов	-11771
▁գրգռ	-11772
▁քույրը	-11773
▁Լիբ	-11774
▁Կեր	-11775
▁Москва	-11776
ստրո	-11777
ոմսերի	-11778
▁քվեարկ	-11779
▁հաղթելով	-11780
вор	-11781
igital	-11782
▁Բնական	-11783
▁առանցքային	-11784
▁բնակության	-11785
▁ուղղակիորեն	-11786
▁էկրանավորումներ	-11787
▁թերթը	-11788
▁ինտել	-11789
▁փրկել	-11790
▁Թուրքական	-11791
иче	-11792
esch	-11793
▁ձևերը	-11794
▁ազդանշան	-11795
▁մենակատար	-11796
նու	-11797
xford	-11798
▁տոնակատար	-11799
Հին	-11800
ideo	-11801
▁ՀՆԱ	-11802
Հովհան	-11803
▁մասնիկների	-11804
▁տարբերակներ	-11805
լիֆ	-11806
վանի	-11807
▁Սուդ	-11808
▁հիմքի	-11809
▁թագուհին	-11810
▁կայսրություն	-11811
▁Ջին	-11812
սբուրգ	-11813
▁մզկիթ	-11814
▁Բուդապեշտ	-11815
վերդ	-11816
ամյակին	-11817
▁Հարավկոր	-11818
ԲԸ	-11819
ձակ	-11820
րիս	-11821
▁Բուրգ	-11822
▁գմբեթ	-11823
▁գործողություն	-11824
▁Թե	-11825
▁Կարճ	-11826
▁Երկրա	-11827
եցության	-11828
▁տիրապետում	-11829
▁ազատազրկման	-11830
▁մս	-11831
▁ընծ	-11832
▁կենտրոնացած	-11833
▁հեռուստաալիքի	-11834
անքները	-11835
▁լիակատար	-11836
▁ռազմավարական	-11837
еж	-11838
▁Թա	-11839
▁նավթի	-11840
▁գերիշխ	-11841
▁թաղված	-11842
մուլտֆիլմ	-11843
▁ծառայություններ	-11844
▁կոնսերվատորիայի	-11845
▁բնութագր	-11846
▁Արևելքում	-11847
rie	-11848
▁Կլա	-11849
▁կլիմայի	-11850
▁Off	-11851
▁արտահայտում	-11852
▁Kn	-11853
Միխ	-11854
▁Ռու	-11855
ակյան	-11856
▁Ադրի	-11857
▁Նշանակ	-11858
▁բացվեց	-11859
▁զարգացել	-11860
▁Կրասնոդարի	-11861
ալիի	-11862
▁Գորկու	-11863
▁մանրամ	-11864
▁Լյուդմիլա	-11865
▁արևադարձային	-11866
▁ծառայություն	-11867
▁Հարությունյան	-11868
isch	-11869
ոցիտ	-11870
▁Զոհ	-11871
▁վրայով	-11872
▁Իրանում	-11873
▁Պարգևատրվել	-11874
avid	-11875
▁Չինաստան	-11876
▁անն	-11877
▁ներբ	-11878
▁Ղարաբաղի	-11879
▁ավստրալի	-11880
▁Հիմնականում	-11881
▁Չափ	-11882
▁գորշ	-11883
▁ոռոգ	-11884
▁հակամ	-11885
▁Բրազիլիայում	-11886
▁ինքնապաշտպան	-11887
ane	-11888
тиче	-11889
▁Կոռ	-11890
▁հոդ	-11891
▁Շմիդ	-11892
▁Չեխոսլով	-11893
▁թվագրվում	-11894
դեկ	-11895
ենսը	-11896
▁ծեծ	-11897
▁պորտ	-11898
▁ընդունակ	-11899
▁վիրավորվել	-11900
▁սեփականության	-11901
ука	-11902
հեռ	-11903
այանի	-11904
▁անդամներից	-11905
▁ֆուտբոլիստը	-11906
արից	-11907
Հայոց	-11908
▁շփոթ	-11909
եներալ	-11910
▁համալսարանական	-11911
▁no	-11912
▁Պարտ	-11913
▁կալան	-11914
▁համալիրի	-11915
ուրթ	-11916
▁Գին	-11917
▁դքս	-11918
▁Իրաքի	-11919
ger	-11920
▁Ве	-11921
ոյուզ	-11922
▁միասն	-11923
▁քահանա	-11924
▁ավանում	-11925
▁ավիաընկեր	-11926
▁արտադրանք	-11927
յուրիի	-11928
▁Եկատերինա	-11929
▁լինելը	-11930
▁ուղեկցվում	-11931
եցում	-11932
▁Դենի	-11933
▁վերապատրաստ	-11934
▁ղեկավարությունը	-11935
ևիչը	-11936
ետների	-11937
▁բոլշև	-11938
ապատասխան	-11939
▁Անվանում	-11940
▁ընտանիքների	-11941
▁հեղինակավոր	-11942
▁Շև	-11943
inal	-11944
▁դարը	-11945
Te	-11946
▁խաբ	-11947
▁կինը՝	-11948
ետիկայի	-11949
▁գյուղերի	-11950
▁գոյությունը	-11951
▁ո՛չ	-11952
▁անորոշ	-11953
▁ջերմաստիճանի	-11954
vol	-11955
ремен	-11956
Քրիստ	-11957
▁կրակի	-11958
աշինության	-11959
▁մակերևույթի	-11960
],	-11961
▁կոթ	-11962
▁լիներ	-11963
▁խորվաթ	-11964
▁Դաշնային	-11965
▁ձմեռային	-11966
▁ստանձնել	-11967
Սան	-11968
ности	-11969
▁հավակն	-11970
▁Համակարգ	-11971
▁ներթափանց	-11972
▁Rock	-11973
▁պուր	-11974
▁Դավիդ	-11975
ոտնի	-11976
▁մտածել	-11977
▁նշելով	-11978
by	-11979
▁Օմ	-11980
մանն	-11981
▁խառը	-11982
▁ոստիկ	-11983
ևնա	-11984
▁Նիլ	-11985
▁տեղն	-11986
▁Մարսի	-11987
▁Ֆեոդոր	-11988
▁թերթից	-11989
▁հեռանկար	-11990
▁հիմնարար	-11991
▁Թեյլոր	-11992
▁կեղծանուն	-11993
Մահ	-11994
իկոսի	-11995
▁ճնշումը	-11996
▁մեքենայի	-11997
▁Արի	-11998
▁Ռիո	-11999
իայից	-12000
▁գիծը	-12001
▁Իզաբել	-12002
▁Պրոֆես	-12003
▁ռեժիմի	-12004
▁ազդեցիկ	-12005
▁գոթ	-12006
▁Թանգարանը	-12007
ևյան	-12008
▁կիթառահար	-12009
▁Հասարակական	-12010
▁արքայական	-12011
▁Հի	-12012
իզը	-12013
ույքի	-12014
ուրդի	-12015
▁պիտի	-12016
▁Իշխան	-12017
իկներին	-12018
▁դարձնելով	-12019
Տեղ	-12020
▁խոզ	-12021
▁Լիոն	-12022
▁առթիվ	-12023
▁քս	-12024
▁Ջիմ	-12025
▁Բարդ	-12026
▁թշնամու	-12027
uman	-12028
Երիտ	-12029
երեկ	-12030
▁Վախ	-12031
▁զարման	-12032
▁ընտրում	-12033
▁երկարաձգ	-12034
ավին	-12035
▁Յակով	-12036
▁հաշվառ	-12037
աբուժության	-12038
▁դեմոկրատական	-12039
Դի	-12040
Փոքր	-12041
▁Կարեն	-12042
▁Հետևաբար	-12043
▁հատվածներ	-12044
oug	-12045
▁Միչ	-12046
▁ճամփորդ	-12047
րոյի	-12048
▁վիդ	-12049
▁թողարկումը	-12050
▁ֆինանսների	-12051
▁эк	-12052
ացնի	-12053
▁բանավ	-12054
ալների	-12055
ցենարիստ	-12056
▁Տարեթվեր	-12057
Հունգ	-12058
▁իրեր	-12059
▁սփյուռ	-12060
▁հաշմանդամ	-12061
uth	-12062
▁խզ	-12063
Գրիգոր	-12064
▁օրերը	-12065
▁կոմիտե	-12066
▁բժիշկներ	-12067
Միլ	-12068
ուտոր	-12069
▁դիվիզիոն	-12070
▁քանիսը	-12071
մբի	-12072
▁զայր	-12073
ուրում	-12074
▁հուղարկ	-12075
▁պոպ	-12076
▁Օպեր	-12077
▁դեպք	-12078
նախկին	-12079
▁ժամկետով	-12080
անդինավ	-12081
▁զորակոչ	-12082
▁As	-12083
▁Er	-12084
▁փաթեթ	-12085
▁Նրանցից	-12086
▁Սարգսյան	-12087
ico	-12088
▁հոսպ	-12089
▁России	-12090
▁Բազմաթիվ	-12091
▁կիսապաշտպաններ	-12092
им	-12093
ոգի	-12094
▁Tom	-12095
▁խստ	-12096
▁Մուշ	-12097
ահերթ	-12098
մայստեր	-12099
▁Բարձրագույն	-12100
▁խորհրդանշական	-12101
ever	-12102
▁Սիգ	-12103
▁տևողությունը	-12104
▁կենցաղային	-12105
▁հետևակային	-12106
▁ճարտարապետներ	-12107
ասիա	-12108
▁Անտի	-12109
▁գիտաշխատող	-12110
Pr	-12111
արդո	-12112
▁News	-12113
▁հորը	-12114
▁Խան	-12115
▁պաստ	-12116
▁այգու	-12117
▁Բես	-12118
որպես	-12119
▁Գասպ	-12120
▁Ամստերդամ	-12121
atch	-12122
▁Բուխ	-12123
եցումը	-12124
▁ինչու	-12125
▁Gra	-12126
▁XVIII	-12127
▁պոեզիայի	-12128
▁տարածքով	-12129
▁Արթ	-12130
▁բնակվող	-12131
▁երկուսը	-12132
ցիի	-12133
▁Sm	-12134
Լուս	-12135
▁Չեխովի	-12136
▁Ռուբեն	-12137
▁քայքայ	-12138
▁հասցնում	-12139
▁բարեփոխումների	-12140
ове	-12141
▁վերևում	-12142
▁խուսափել	-12143
▁անցկացրած	-12144
▁վահ	-12145
▁դավան	-12146
och	-12147
ոպան	-12148
ultur	-12149
▁Գուստ	-12150
▁Նատալյա	-12151
▁հասկանալ	-12152
▁բացատրում	-12153
▁քրիստոնյա	-12154
▁հուշարձանի	-12155
▁բացահայտում	-12156
Արց	-12157
▁Ser	-12158
▁кон	-12159
ազային	-12160
▁ստացվել	-12161
▁Հիպ	-12162
անշանակ	-12163
վիտ	-12164
▁...	-12165
▁Տոնը	-12166
▁համախմբ	-12167
▁հանքային	-12168
▁անձը	-12169
երները	-12170
▁House	-12171
▁Յարոսլավ	-12172
▁հատկություններ	-12173
գիտ	-12174
▁հարուց	-12175
եմիկ	-12176
▁թեոր	-12177
Աստղ	-12178
▁Տասն	-12179
▁հեղինակներ	-12180
րաթերթ	-12181
▁իրերի	-12182
▁Վիրջին	-12183
▁ծավալը	-12184
▁վտանգի	-12185
▁մասնակիցները	-12186
տակ	-12187
րոմբ	-12188
▁կիրառական	-12189
անդայի	-12190
իդների	-12191
այնային	-12192
▁ծագումը	-12193
սեղ	-12194
ումաա	-12195
▁Գրել	-12196
▁արտաքս	-12197
ES	-12198
▁տարիները	-12199
Կոր	-12200
illa	-12201
ասից	-12202
▁երգն	-12203
գերման	-12204
Երիտասարդ	-12205
Պր	-12206
▁պատրաստած	-12207
ER	-12208
աքն	-12209
իդային	-12210
ագիտությունը	-12211
Երևանի	-12212
▁պայքարել	-12213
▁ենթակառուց	-12214
▁տեսահոլովակ	-12215
▁CO	-12216
iction	-12217
▁խտր	-12218
▁Ստամբուլի	-12219
▁շրջանում՝	-12220
օքս	-12221
▁կոռ	-12222
▁ուժեր	-12223
Մաշտոցի	-12224
▁Ալբանիայի	-12225
▁ուղղահայաց	-12226
▁պետություններ	-12227
▁հասկացությունը	-12228
bum	-12229
▁գետերն	-12230
▁պրեֆեկտ	-12231
eek	-12232
բախ	-12233
▁Սեռ	-12234
▁համեմ	-12235
▁մերժում	-12236
▁գավառներ	-12237
▁խոսքերով	-12238
ոտայի	-12239
▁UK	-12240
սենի	-12241
▁Նատ	-12242
▁Դիսն	-12243
▁երկրաբան	-12244
▁պաշտպանություն	-12245
ling	-12246
▁բարեն	-12247
▁հավաստ	-12248
▁Եգիպտոս	-12249
▁Սոցիալական	-12250
▁թաղամասում	-12251
▁Լար	-12252
▁Միշել	-12253
իկներից	-12254
▁Ֆերդին	-12255
▁ուղղանկյուն	-12256
▁Բոու	-12257
▁անգամ՝	-12258
▁Տեսարժան	-12259
▁արժեքների	-12260
▁գաղափարների	-12261
▁օգտագործելու	-12262
▁Ռա	-12263
▁ատամն	-12264
▁փախչում	-12265
Գիտ	-12266
ույգ	-12267
▁Կամեն	-12268
▁օրգան	-12269
▁sc	-12270
Մայր	-12271
▁քրդ	-12272
erman	-12273
անսկի	-12274
▁Շնորհ	-12275
▁փափուկ	-12276
▁նկարագրվում	-12277
▁Գի	-12278
▁պիտ	-12279
▁Անրի	-12280
▁Բրուն	-12281
▁Գրանդ	-12282
▁հյութ	-12283
▁կողմերի	-12284
▁արտագաղթ	-12285
Cl	-12286
▁Պա	-12287
▁Տպ	-12288
▁բացատրել	-12289
▁քվանտային	-12290
▁օրենքների	-12291
сто	-12292
Tube	-12293
այանը	-12294
▁հոգու	-12295
▁զինծառայ	-12296
▁Բեռլինում	-12297
▁Հարավսլավիայի	-12298
irst	-12299
yd	-12300
лу	-12301
յատ	-12302
ոուս	-12303
▁գիծ	-12304
▁օրեր	-12305
▁Ալբոմի	-12306
▁Սովետական	-12307
▁գնահատման	-12308
▁Սաբ	-12309
▁Եվրամի	-12310
▁խմբագր	-12311
▁պայծառ	-12312
▁Ռաֆայել	-12313
▁սահմանի	-12314
Մոսկվա	-12315
ելե	-12316
▁Վիեն	-12317
▁Լիտվայի	-12318
▁Սաուդյան	-12319
ese	-12320
անդը	-12321
ակովի	-12322
աստիան	-12323
անյութերի	-12324
▁Արխանգելսկի	-12325
▁պրովինցիայում	-12326
▁արկ	-12327
▁տվյալների՝	-12328
ադան	-12329
որտը	-12330
▁ծիծ	-12331
тов	-12332
иогра	-12333
ամետր	-12334
▁Նկարիչ	-12335
▁հյուպատ	-12336
▁Հակոբյան	-12337
ներառ	-12338
▁ըմբշ	-12339
▁Ֆուտբոլային	-12340
▁ընտրությունը	-12341
ֆիկ	-12342
անիայից	-12343
ոի	-12344
▁%)։	-12345
▁Կորոլ	-12346
▁հարսն	-12347
▁տիկնիկ	-12348
▁բերելու	-12349
це	-12350
▁Ստյու	-12351
▁անկան	-12352
▁Տի	-12353
րամա	-12354
լետիկ	-12355
փոփոխ	-12356
▁Ղրիմ	-12357
ola	-12358
մում	-12359
▁կոչումը	-12360
▁ճանաչման	-12361
▁եղբայրները	-12362
ull	-12363
анд	-12364
Գար	-12365
Հակ	-12366
ունու	-12367
▁կոալից	-12368
▁իշխանություն	-12369
ենդերային	-12370
ումյանի	-12371
▁անհնար	-12372
▁տրամադրում	-12373
ira	-12374
ոլան	-12375
▁կիսաեզրափակիչ	-12376
щи	-12377
ադելֆ	-12378
վորյակ	-12379
▁կապել	-12380
▁ներդաշնակ	-12381
▁Տրանսպ	-12382
▁արքեպիսկոպոս	-12383
▁Ջի	-12384
▁Մեգ	-12385
▁Հնդկաստան	-12386
логия	-12387
▁Ռադի	-12388
ագրային	-12389
▁արկածները	-12390
▁տարիքային	-12391
▁նվազեցնում	-12392
▁հրատարակված	-12393
▁ձեռագրացում	-12394
▁արջ	-12395
▁լար	-12396
ոյանի	-12397
▁Ղազար	-12398
▁դերով	-12399
▁մահացու	-12400
▁տրանսպորտի	-12401
▁նախատեսվում	-12402
ենով	-12403
▁կրի	-12404
ոպրան	-12405
▁Միլանի	-12406
ձեռագրերի	-12407
Խաչ	-12408
burg	-12409
ject	-12410
▁Ջերմ	-12411
▁Տարածվածություն	-12412
go	-12413
շա	-12414
▁Աշտ	-12415
ասպուր	-12416
▁տանող	-12417
▁մեդալի	-12418
▁Ալֆ	-12419
▁լեգե	-12420
▁Night	-12421
▁Ալբոմը	-12422
▁Թեոդոր	-12423
▁պարիսպ	-12424
▁փակվել	-12425
▁հիշատակում	-12426
▁պահանջվում	-12427
▁պրոդյուսերներ	-12428
emp	-12429
Դավ	-12430
լինը	-12431
▁class	-12432
▁Художник	-12433
▁բարձրացնում	-12434
նոե	-12435
▁սյուր	-12436
▁Լուսնի	-12437
▁Պոտ	-12438
▁մալ	-12439
етерб	-12440
ուններ	-12441
▁բանտում	-12442
▁ֆիլմերը	-12443
ագործությամբ	-12444
▁Լր	-12445
▁Net	-12446
▁Բրո	-12447
ցենարի	-12448
տվյալները	-12449
▁դարաշրջան	-12450
օգուտ	-12451
ենային	-12452
▁Google	-12453
zy	-12454
իսում	-12455
▁գրամ	-12456
▁էին՝	-12457
▁դրվում	-12458
▁բաժանել	-12459
▁Hol	-12460
▁Լեգ	-12461
▁երբևէ	-12462
▁am	-12463
▁ծծ	-12464
▁ոսկու	-12465
▁Մարիամ	-12466
կիր	-12467
անկա	-12468
▁դնել	-12469
▁Մարիան	-12470
▁ծովում	-12471
▁կաթնաս	-12472
▁Իսպանիա	-12473
▁ապաստան	-12474
▁ֆիլմերից	-12475
NA	-12476
▁անցկ	-12477
▁գրելու	-12478
▁քերական	-12479
▁անկայուն	-12480
▁Հովհաննիսյան	-12481
▁պոկ	-12482
▁Աբու	-12483
▁Լյուդով	-12484
▁ուղեցույց	-12485
զեն	-12486
▁Սմբ	-12487
▁կուս	-12488
▁Հյուս	-12489
▁խոսքը	-12490
▁վտակը	-12491
▁գույքի	-12492
▁մեծահասակների	-12493
եցու	-12494
▁արժեքի	-12495
▁(;	-12496
▁տեսած	-12497
▁Նշումներ	-12498
▁իրականության	-12499
▁ամուսնությունից	-12500
ex	-12501
եռի	-12502
րաս	-12503
▁Երկր	-12504
▁շփման	-12505
▁ուղին	-12506
▁տղայի	-12507
▁փոխանցել	-12508
alt	-12509
clop	-12510
▁խաչի	-12511
стория	-12512
▁համայնքը	-12513
▁հաստատվում	-12514
▁փոխհարաբեր	-12515
▁տարբերությունը	-12516
ամկ	-12517
▁Ֆինանս	-12518
ambridge	-12519
Էրզրումի	-12520
▁Լատինական	-12521
ելիությունը	-12522
▁ձայնագրման	-12523
лед	-12524
▁Gall	-12525
ակազմի	-12526
երենից	-12527
▁կողոպ	-12528
Անն	-12529
▁պատերի	-12530
▁կոմիտեն	-12531
▁Հոլոքոստ	-12532
▁առաջադրանք	-12533
▁եթերաշրջանի	-12534
▁произведений	-12535
▁հակամարտության	-12536
ats	-12537
ենան	-12538
▁Շապ	-12539
▁Խումբը	-12540
▁առասպել	-12541
▁զորավար	-12542
▁գյուտարար	-12543
էս	-12544
▁առյուծ	-12545
▁բանահյուս	-12546
▁պատկերասրահի	-12547
▁Ма	-12548
ահամար	-12549
▁Յակոբ	-12550
▁ընտրվեց	-12551
▁արտադրվում	-12552
▁Օրբ	-12553
▁Ստար	-12554
▁Վեներ	-12555
▁տեսախց	-12556
▁Ֆլորենց	-12557
▁եկամուտը	-12558
Վոլ	-12559
գնդ	-12560
▁Histor	-12561
иб	-12562
▁Հայրը	-12563
▁շրջանառ	-12564
▁soc	-12565
▁չարթ	-12566
▁Europe	-12567
El	-12568
▁Բարտ	-12569
▁Ուզբեկ	-12570
բուրգում	-12571
▁տեղադրել	-12572
ԻԱ	-12573
տիի	-12574
ովից	-12575
▁Վիլյամ	-12576
▁բջիջները	-12577
Երեք	-12578
Իվան	-12579
▁Գրավում	-12580
▁կապվում	-12581
▁օրաթերթ	-12582
▁վիշ	-12583
ublic	-12584
▁խաղում՝	-12585
▁Քոչ	-12586
▁ֆիզիկ	-12587
ագրությունները	-12588
▁թագավորություն	-12589
▁Ադոլֆ	-12590
Ֆուտբոլ	-12591
այնորեն	-12592
▁Զանգեզ	-12593
aint	-12594
▁Իտալական	-12595
▁զանգվածը	-12596
▁մահվանից	-12597
▁ցուցաբերել	-12598
▁բլոկ	-12599
▁համալր	-12600
▁հարցերը	-12601
▁շրջափակ	-12602
▁նախագահն	-12603
▁համատեքստ	-12604
▁հարցազրույցում	-12605
▁քր	-12606
▁Փոթ	-12607
▁website	-12608
▁կյանքից	-12609
▁հաջորդում	-12610
▁փորձելով	-12611
▁պատասխ	-12612
▁փայլուն	-12613
▁ինքնակառ	-12614
 - 	-12615
ատային	-12616
▁շախմատի	-12617
▁Մասաչուսեթ	-12618
▁տեղեկություն	-12619
▁մտերիմ	-12620
▁տարրերը	-12621
▁մասնակցությունը	-12622
▁սթ	-12623
ագնդ	-12624
▁պատմվածք	-12625
ցում	-12626
ատիրոջ	-12627
աֆրիկյան	-12628
▁պրոդյուս	-12629
▁լիամետրաժ	-12630
▁հոդվածում	-12631
▁փոփոխություն	-12632
▁կինոփառատոնում	-12633
ոյն	-12634
INSEE	-12635
▁փախստ	-12636
▁ստիպել	-12637
▁վեպում	-12638
▁օրիգինալ	-12639
▁ազգանունը	-12640
▁վարդագույն	-12641
աղը	-12642
ոմը	-12643
▁ԼՂՀ	-12644
▁խմբերը	-12645
աստանյան	-12646
▁ամենայն	-12647
▁անվանվում	-12648
▁բաժանմունքի	-12649
раво	-12650
պատակ	-12651
Նիկոլայ	-12652
▁Ժամանակի	-12653
▁Խաչատուր	-12654
▁խուսափելու	-12655
ոյնթ	-12656
▁Ժեր	-12657
շական	-12658
▁այսպիսի	-12659
▁գերակշռում	-12660
▁շարունակվել	-12661
▁իրականացնելու	-12662
եզա	-12663
▁փորձերը	-12664
աբջ	-12665
դալ	-12666
րայի	-12667
աբույ	-12668
▁Ուոթ	-12669
▁չափը	-12670
աժողովի	-12671
▁մասշտաբ	-12672
▁Լեհաստանում	-12673
▁Նկարահանում	-12674
▁գործողությունը	-12675
бор	-12676
Արմեն	-12677
▁հերք	-12678
▁քաշային	-12679
Հաղթ	-12680
▁ռոբ	-12681
եդայի	-12682
▁սիրողական	-12683
▁տեսողական	-12684
աշան	-12685
▁Inc	-12686
▁Ֆիլմում	-12687
▁Երուսաղեմ	-12688
▁անօրինական	-12689
Գալ	-12690
▁Եռ	-12691
▁Բրոդ	-12692
▁պապը	-12693
վածքում	-12694
▁Սեմյոն	-12695
▁լանդշաֆ	-12696
▁կառավարությանը	-12697
շար	-12698
ոմե	-12699
ատառ	-12700
▁անկման	-12701
․-	-12702
աբթի	-12703
iation	-12704
իսյանը	-12705
▁անհրաժեշտության	-12706
act	-12707
մենի	-12708
▁Mac	-12709
Ժողով	-12710
▁կարծիք	-12711
ավալի	-12712
▁ցամաք	-12713
պատերազմյան	-12714
▁պոլիտեխնիկական	-12715
ita	-12716
▁Mer	-12717
▁լուծել	-12718
▁սաունդ	-12719
▁հոդվածի	-12720
▁հովտում	-12721
▁խնդրանքով	-12722
▁ցուցահանդեսը	-12723
▁ոտն	-12724
ածանց	-12725
▁տանջ	-12726
ծննդյան	-12727
▁դատարկ	-12728
▁չափերի	-12729
▁հեղինակ՝	-12730
▁Մարդկային	-12731
▁Մակեդոնիայի	-12732
▁մասնագիտությամբ	-12733
▁Do	-12734
▁Թարգման	-12735
▁պահելու	-12736
▁ֆունկցիայի	-12737
ball	-12738
Մենք	-12739
վեին	-12740
▁ներկայացնող	-12741
աո	-12742
▁be	-12743
ամաա	-12744
▁Գորդ	-12745
▁ՖԻՖԱ	-12746
▁մլրդ	-12747
Ռուսաստան	-12748
▁տեմպ	-12749
датель	-12750
▁Չեխիայի	-12751
▁դարպասը	-12752
▁սուպերգ	-12753
▁ստուդիան	-12754
ճիռ	-12755
▁Ռիկ	-12756
աբանի	-12757
▁Radio	-12758
▁բանկը	-12759
▁դեպրես	-12760
▁ցուցանմուշ	-12761
▁ձուլ	-12762
▁պսակ	-12763
անշանը	-12764
▁փոթոր	-12765
▁փոխում	-12766
▁օլիմպի	-12767
▁ընկերությունում	-12768
ինտ	-12769
ապատվ	-12770
առուս	-12771
▁Գուլ	-12772
▁կռիվ	-12773
Սոյուզ	-12774
▁ընդմիջ	-12775
▁ունենա	-12776
rib	-12777
▁ածանց	-12778
▁իսկապես	-12779
▁հերոսներ	-12780
▁գնահատում	-12781
▁Կիտ	-12782
▁միանալ	-12783
▁Էջմիածնի	-12784
▁արմատական	-12785
▁պատերազմներ	-12786
Re	-12787
cyclop	-12788
արանին	-12789
հիմնական	-12790
▁մասնակցության	-12791
uck	-12792
ոնով	-12793
▁պինդ	-12794
▁բառեր	-12795
▁Վիեննայում	-12796
▁Գրադ	-12797
▁անգլ	-12798
ասերիալ	-12799
▁կարգավիճակը	-12800
․․․	-12801
ions	-12802
▁պատմվածքներ	-12803
որական	-12804
▁Ֆրենս	-12805
▁ականջ	-12806
▁առարկաների	-12807
▁Աշխարհագրական	-12808
ապր	-12809
թերի	-12810
▁ուխտ	-12811
▁կրթաթոշ	-12812
▁Վաշինգտոն	-12813
▁օրինակներ	-12814
բայ	-12815
▁Մուն	-12816
▁մանրէ	-12817
▁արվեստում	-12818
▁եկեղեցիների	-12819
▁հիվանդի	-12820
▁կամուրջը	-12821
▁համաձայնության	-12822
aur	-12823
▁Found	-12824
▁հալած	-12825
թվականին	-12826
▁տուգ	-12827
▁տեսավ	-12828
▁ականավոր	-12829
▁Լույս	-12830
▁սենատոր	-12831
▁պարզվում	-12832
▁հանկարծակի	-12833
ԴՀ	-12834
Գլուխ	-12835
▁ընտանիքից	-12836
Սա	-12837
ատկ	-12838
Թուր	-12839
▁Բնության	-12840
▁անհավասար	-12841
▁Ժն	-12842
▁Օն	-12843
▁բազիլ	-12844
▁դրվել	-12845
▁պայմաններ	-12846
▁մարդկության	-12847
mo	-12848
ый	-12849
ոտն	-12850
ինային	-12851
▁Մորիս	-12852
▁առաջադր	-12853
▁ախտանշան	-12854
▁հարյուրավոր	-12855
▁Հրաչ	-12856
▁Ջուղ	-12857
▁պատմվածքը	-12858
▁այտ	-12859
ատեսակներ	-12860
▁Անգլիական	-12861
▁մարմինները	-12862
▁Ռյ	-12863
յալներ	-12864
▁դետեկտիվ	-12865
arl	-12866
▁Up	-12867
▁ոչխ	-12868
▁եղջեր	-12869
▁բանջար	-12870
▁շրջանից	-12871
ура	-12872
▁դռ	-12873
թարի	-12874
նիշխան	-12875
▁գոլոր	-12876
▁գյուղն	-12877
▁դիտում	-12878
▁լուծար	-12879
▁կայքէջ	-12880
▁Բաքվում	-12881
▁ճառագայթման	-12882
▁Վեգ	-12883
▁ուղեկ	-12884
▁թոշակառու	-12885
▁հաջողությունը	-12886
▁դուք	-12887
▁պետի	-12888
▁խրախուս	-12889
▁կինոստուդ	-12890
▁առավելապես	-12891
hem	-12892
▁XVI	-12893
▁Կրաս	-12894
▁պապի	-12895
▁սերիա	-12896
▁Պատճառ	-12897
▁Տատյանա	-12898
▁ծրագրերը	-12899
▁կատարվող	-12900
▁Վենեսուել	-12901
ars	-12902
ուն՝	-12903
ետներ	-12904
▁ուղարկեց	-12905
▁Շչ	-12906
▁Մեջ	-12907
▁Ֆիշ	-12908
երկու	-12909
ագլուխ	-12910
▁հարցերին	-12911
▁աշխատակիցների	-12912
Կամ	-12913
մասն	-12914
▁ափի	-12915
▁գրեց	-12916
տանգության	-12917
▁բուժքույր	-12918
gy	-12919
▁Նի	-12920
իրներ	-12921
▁истории	-12922
▁Արմավիրի	-12923
▁կառուցում	-12924
▁պատմվածքների	-12925
én	-12926
▁իրավահ	-12927
▁դիվիզիայի	-12928
ero	-12929
▁Mov	-12930
▁Club	-12931
▁Ճակատ	-12932
▁Լիբանանի	-12933
▁գործակից	-12934
▁պահանջել	-12935
ael	-12936
րիշ	-12937
▁Ан	-12938
ոնոմ	-12939
▁Les	-12940
▁ամսական	-12941
▁հեթանոս	-12942
▁սահմանվում	-12943
sy	-12944
▁հոգի	-12945
արարության	-12946
▁սկզբունքը	-12947
▁տեղափոխում	-12948
ատո	-12949
▁Էնթ	-12950
▁Լամ	-12951
▁Քինգ	-12952
▁կլան	-12953
▁սեղանի	-12954
Սեբ	-12955
▁երիտասարդության	-12956
▁վերջերս	-12957
▁նկարահանումները	-12958
▁Val	-12959
▁Սող	-12960
▁նախատեսում	-12961
քիզ	-12962
Պետր	-12963
ելիեֆ	-12964
▁Հորդան	-12965
▁տառապում	-12966
▁ավելացնում	-12967
▁Պոդ	-12968
▁Part	-12969
▁Ալան	-12970
▁Խոսե	-12971
▁Սլավ	-12972
▁նավը	-12973
▁Catal	-12974
▁Բուենոս	-12975
▁չկարողացավ	-12976
▁Oxford	-12977
▁վերցված	-12978
իֆիկ	-12979
րադիր	-12980
▁հրեշ	-12981
▁Քիմիական	-12982
ԼԿ	-12983
▁Տարտ	-12984
▁հեռացվել	-12985
▁ձևավորել	-12986
▁վերակառուցվել	-12987
IA	-12988
▁ըմ	-12989
ունն	-12990
խորհրդ	-12991
▁թրիլեր	-12992
▁սարքերի	-12993
▁արձակագիրներ	-12994
Լի	-12995
▁СССР	-12996
▁դեմքի	-12997
▁Ուելսի	-12998
▁լեռներում	-12999
մեծ	-13000
ենսիլվ	-13001
եռլանդ	-13002
▁Փիթեր	-13003
isc	-13004
իլլ	-13005
▁բացում	-13006
ենտգեն	-13007
▁Անջելեսի	-13008
▁նախագահության	-13009
▁Chart	-13010
անկային	-13011
▁Տորոնտ	-13012
Բեմադրող	-13013
▁ռացիոնալ	-13014
▁վերակազմ	-13015
▁գործոնների	-13016
▁խաղացողներ	-13017
▁եփ	-13018
սովոր	-13019
րության	-13020
▁Mil	-13021
▁Իգլ	-13022
ուայի	-13023
▁Ուկրաինացի	-13024
▁Տարածաշրջանների	-13025
֊ի	-13026
դեր	-13027
▁el	-13028
▁ՀԱ	-13029
▁Լեբ	-13030
ամագն	-13031
▁Նվաճ	-13032
▁Վինչ	-13033
▁սիմվոլ	-13034
▁անսովոր	-13035
▁իռլանդական	-13036
ском	-13037
▁Տոն	-13038
▁Տրանս	-13039
չենկոյի	-13040
▁լիբերալ	-13041
fe	-13042
ենչ	-13043
▁Վիչեգ	-13044
▁դժբախտ	-13045
▁կայսրը	-13046
րաբանական	-13047
▁արդարադատության	-13048
ress	-13049
▁լիցք	-13050
bout	-13051
ջութ	-13052
▁XVII	-13053
▁ընկերները	-13054
Ка	-13055
քեթ	-13056
▁экз	-13057
արանտ	-13058
▁ռիթմ	-13059
Եթե	-13060
եբի	-13061
урна	-13062
▁Թալ	-13063
▁VIII	-13064
▁գորգ	-13065
ок	-13066
▁տխ	-13067
▁բռնի	-13068
▁Berlin	-13069
▁School	-13070
▁Society	-13071
▁Ֆիզիկական	-13072
▁сайт	-13073
▁գիտակցության	-13074
▁San	-13075
▁Իրական	-13076
▁կամրջի	-13077
▁առաջխաղ	-13078
▁հայրենիք	-13079
▁հետմահու	-13080
▁շվեդական	-13081
▁Նկարահանող	-13082
▁ընկավ	-13083
ատարակում	-13084
▁տասներկու	-13085
▁Դեմոկրատական	-13086
va	-13087
chn	-13088
սկայայի	-13089
▁վարձակալ	-13090
vent	-13091
▁Out	-13092
▁պահպանելու	-13093
▁մարմնավորել	-13094
▁Էգ	-13095
▁հակառակորդ	-13096
ոմպ	-13097
▁չտ	-13098
▁Red	-13099
▁Սուխ	-13100
▁պարի	-13101
▁սինգ	-13102
▁պատրաստելու	-13103
Ինտ	-13104
յավ	-13105
ատեղի	-13106
սկայան	-13107
▁բեմում	-13108
▁ցիկլ	-13109
▁Կոտայքի	-13110
▁շահագործման	-13111
▁հրատարակչության	-13112
▁Of	-13113
▁ԱՀ	-13114
▁մեքս	-13115
▁ներս	-13116
▁Մարոկ	-13117
▁Վիչեգդա	-13118
▁մասերում	-13119
den	-13120
▁Չժ	-13121
▁Դուգ	-13122
Հայրենիքին	-13123
փը	-13124
▁կիրճ	-13125
▁սերտորեն	-13126
▁Հայդելբերգ	-13127
▁Հուդ	-13128
▁Տեղեկ	-13129
▁ծախսերի	-13130
▁հիմնադրամ	-13131
▁ցուցահանդեսներ	-13132
кин	-13133
գորոդ	-13134
▁Հոլմ	-13135
վածություն	-13136
tt	-13137
իտար	-13138
▁Հայերը	-13139
▁ներշնչ	-13140
Ռուսական	-13141
▁Երգացանկ	-13142
▁խաղարկության	-13143
▁խանգարումներ	-13144
ja	-13145
ams	-13146
ington	-13147
▁տանել	-13148
▁ճնշում	-13149
▁Անդրկովկ	-13150
▁հավաքվել	-13151
▁հիմնադիրը	-13152
դեմոկրատական	-13153
▁Անժ	-13154
ատրիումի	-13155
▁բացումը	-13156
▁ձայնագրվել	-13157
օրգ	-13158
кола	-13159
▁այգում	-13160
▁Արիստոտ	-13161
ատեխնիկական	-13162
ասա	-13163
▁զորամաս	-13164
▁բանակային	-13165
ացիներն	-13166
▁կնքում	-13167
▁օդաչու	-13168
▁պորտուգալ	-13169
▁մուլտֆիլմի	-13170
▁շուկայական	-13171
▁տարբերակով	-13172
▁այլընտրանքային	-13173
▁Կռ	-13174
ոմատ	-13175
▁փետ	-13176
▁բորս	-13177
▁Բնօրինակում	-13178
նիայում	-13179
▁ապրելու	-13180
▁բնակավայրի	-13181
▁քլոր	-13182
որները	-13183
▁հնդկաց	-13184
▁վերաբնակ	-13185
▁առաջընթաց	-13186
ենտրոնացման	-13187
▁կերպարվեստի	-13188
▁բլուր	-13189
▁ամսագիր	-13190
▁ավստրիական	-13191
▁առաջացնելով	-13192
}}	-13193
ез	-13194
▁пре	-13195
իլյան	-13196
կատար	-13197
▁գտնելու	-13198
▁նշանակվեց	-13199
▁պատկերներ	-13200
▁ապստամբությունը	-13201
ախտի	-13202
ունց	-13203
Վիկտոր	-13204
▁բանասեր	-13205
▁հավաքված	-13206
▁ախտորոշման	-13207
ée	-13208
▁Շամպ	-13209
▁Կահիր	-13210
▁ենթակայության	-13211
▁Fl	-13212
▁Ոստ	-13213
▁ֆեոդ	-13214
▁օրենսդիր	-13215
▁գործարարներ	-13216
երաժ	-13217
▁կշռ	-13218
▁Apple	-13219
▁մելոդ	-13220
Աշխարհի	-13221
▁Բրայան	-13222
▁ուրվագ	-13223
▁հասցնել	-13224
վիլի	-13225
▁նով	-13226
▁Совет	-13227
երև	-13228
▁ֆր	-13229
▁Band	-13230
▁Արքայ	-13231
▁դեմքը	-13232
▁Բունդես	-13233
▁Նապոլեոն	-13234
▁հարձակվել	-13235
▁Գեղարվեստի	-13236
пис	-13237
tist	-13238
▁Երկիր	-13239
▁Յուպիտերի	-13240
▁հրատարակչ	-13241
▁Բրազիլիայում՝	-13242
ացր	-13243
հով	-13244
▁լսում	-13245
▁տարիքը	-13246
անկարներ	-13247
▁աղբյուրը	-13248
▁դերասանների	-13249
յուի	-13250
▁դասին	-13251
▁Պայման	-13252
▁վերագրվում	-13253
▁թյուր	-13254
▁կախարդական	-13255
▁դրամատուրգներ	-13256
ía	-13257
եմո	-13258
բնական	-13259
▁փոխադր	-13260
▁հայազգի	-13261
▁խաղացողը	-13262
гор	-13263
Տես	-13264
մոս	-13265
▁Ռիգ	-13266
▁չափի	-13267
ացիաները	-13268
▁միացյալ	-13269
▁անաղբյուր	-13270
ые	-13271
ոկոմ	-13272
▁рус	-13273
մայոր	-13274
ոլայի	-13275
▁Գարդ	-13276
▁ոչնչացման	-13277
▁արտահայտվել	-13278
▁sp	-13279
▁Դիեգ	-13280
Մարդկային	-13281
իջի	-13282
▁Կաբ	-13283
▁Զբոս	-13284
▁Ընդուն	-13285
▁միախառնման	-13286
▁ջրա	-13287
ազանդ	-13288
▁Հարրի	-13289
▁Հոգեբ	-13290
▁Երվանդ	-13291
▁ընթացքը	-13292
▁աստղագետ	-13293
▁հոգեբուժ	-13294
▁կանոնները	-13295
▁շարունակական	-13296
▁արարողությունը	-13297
Սկ	-13298
▁то	-13299
rary	-13300
▁Russ	-13301
▁Կում	-13302
անոթային	-13303
▁Մանկական	-13304
▁ոստիկանությունը	-13305
сте	-13306
▁Մո	-13307
Նկարիչ	-13308
▁աֆրիկյան	-13309
▁Ուդ	-13310
▁խնձ	-13311
▁կաց	-13312
գուստ	-13313
▁սուզ	-13314
եցվում	-13315
▁կայարան	-13316
աժի	-13317
▁Sw	-13318
▁խլ	-13319
ника	-13320
երանի	-13321
սիական	-13322
▁գարեջ	-13323
▁նախարարությունը	-13324
▁ш	-13325
ora	-13326
▁Չիլիի	-13327
▁դատարան	-13328
▁օրենքները	-13329
▁հանրագիտարան	-13330
ֆիլդ	-13331
▁Մեզ	-13332
▁ճշգրտ	-13333
▁Թաղված	-13334
▁հանգստի	-13335
▁գրականագետ	-13336
▁զուտ	-13337
▁ծովահ	-13338
▁հանրաք	-13339
▁Չիկագոյի	-13340
▁Արագածոտնի	-13341
▁հարձակվում	-13342
ելլ	-13343
րդը	-13344
▁Էշ	-13345
թրեք	-13346
▁Հազ	-13347
ակարդ	-13348
եգորի	-13349
▁Իսլամական	-13350
▁օդանավակայանը	-13351
▁Առն	-13352
▁Գոմ	-13353
▁Կյուր	-13354
▁պաշտպանի	-13355
▁օբյեկտներ	-13356
gen	-13357
բերին	-13358
овремен	-13359
▁Խորհրդի	-13360
▁Նախապատմ	-13361
▁հիմնադրման	-13362
лен	-13363
նեպ	-13364
▁Ջես	-13365
ազերծ	-13366
ոյանը	-13367
▁Գիրքը	-13368
▁սիրտը	-13369
▁Ստեփանոս	-13370
▁լեզվական	-13371
▁յոթերորդ	-13372
▁Ճապոնական	-13373
▁Սահմանադրության	-13374
տու	-13375
ոսիֆ	-13376
նակալ	-13377
եղեցիկ	-13378
▁Լինելով	-13379
▁վիրաբույժ	-13380
▁հաջորդական	-13381
▁շագանակագույն	-13382
▁ժողովրդավարական	-13383
վեյ	-13384
▁լռ	-13385
ոյով	-13386
▁Մեհ	-13387
▁Ուղղ	-13388
ընտանի	-13389
▁դերերում	-13390
▁նմուշներ	-13391
▁հրավիրում	-13392
▁ամուսնացավ	-13393
▁երևույթների	-13394
▁հետազոտությունը	-13395
եդը	-13396
գոյի	-13397
յակից	-13398
ածների	-13399
▁ջրում	-13400
▁արվեստագետ	-13401
▁դպրոցն	-13402
▁կոնցենտր	-13403
▁վերջերին	-13404
▁քարանձավ	-13405
▁Խարբերդի	-13406
▁Թիֆլիսում	-13407
▁մրցաշարերում	-13408
Պատվ	-13409
եններ	-13410
կների	-13411
▁խաղին	-13412
▁դերերը	-13413
▁նվագում	-13414
‎‎	-13415
▁Ծր	-13416
երիի	-13417
▁Դիլ	-13418
▁Վիդ	-13419
ագիրք	-13420
ունով	-13421
▁վախենում	-13422
▁Ժողովածու	-13423
▁կառուցվում	-13424
▁բացակայությունը	-13425
rip	-13426
ային՝	-13427
▁հորմ	-13428
ersion	-13429
▁ավարտում	-13430
▁մարզիչներ	-13431
ոխի	-13432
փակ	-13433
▁ինֆեկց	-13434
▁Կոմիտասի	-13435
▁ներդրման	-13436
▁Կալին	-13437
▁Տարեկան	-13438
uz	-13439
mark	-13440
ազախ	-13441
▁Երզն	-13442
▁ցուրտ	-13443
▁նյութը	-13444
▁մեծացնում	-13445
▁ձևավորումը	-13446
▁հարաբերական	-13447
բարձր	-13448
ախնդիր	-13449
▁Հոդված	-13450
▁մետաղական	-13451
ելում	-13452
▁Դեռևս	-13453
▁Ժոզեֆ	-13454
▁նեղուց	-13455
ությունների՝	-13456
▁Վես	-13457
▁Վոլֆ	-13458
▁Մարին	-13459
▁Դեզերտ	-13460
▁թռիչքի	-13461
▁քոլեջը	-13462
▁Հունաստան	-13463
▁ծանոթանում	-13464
▁կազմակերպիչ	-13465
▁ոմանք	-13466
ues	-13467
▁Dr	-13468
▁Int	-13469
իլիան	-13470
▁երկխոս	-13471
▁կորպոր	-13472
▁Կարոլին	-13473
▁ականատես	-13474
▁ֆիզիկոսներ	-13475
▁Ռուզ	-13476
▁հոսպիտալ	-13477
▁առաջացումը	-13478
▁հակակ	-13479
▁Դոնալդ	-13480
▁երջանկ	-13481
▁սյուժե	-13482
▁զբաղվող	-13483
mann	-13484
▁Տոկ	-13485
▁պարոն	-13486
▁կազմող	-13487
▁խաղալով	-13488
Լև	-13489
▁Mc	-13490
▁գրած	-13491
Be	-13492
кра	-13493
սուն	-13494
▁Արև	-13495
▁մասից	-13496
▁ամսաթիվ	-13497
▁Լյուդվիգ	-13498
▁լայնածավալ	-13499
▁հարավարևելյան	-13500
color	-13501
բերտը	-13502
▁YouTube	-13503
▁կայացավ	-13504
▁*	-13505
▁Սաս	-13506
▁Սեդ	-13507
▁Ջոնի	-13508
▁նվաճեց	-13509
▁կատարյալ	-13510
▁չունեցող	-13511
▁գործարանում	-13512
շրջ	-13513
պարտ	-13514
▁Գուգ	-13515
▁Վորոն	-13516
▁անվանումն	-13517
▁պաշտպանությունը	-13518
անվել	-13519
ծնված	-13520
▁օրինաչափ	-13521
▁Տեխնիկական	-13522
▁շարժումների	-13523
▁գների	-13524
▁ակտիվիստ	-13525
▁նախագծով	-13526
▁աշխատանքներից	-13527
էր	-13528
▁վարքի	-13529
▁Կազմը՝	-13530
▁Զուգ	-13531
▁Սմիթ	-13532
▁վեպերի	-13533
етербург	-13534
--	-13535
Սամ	-13536
▁ԱՄ	-13537
▁Ալմ	-13538
▁թողեց	-13539
▁տոհմի	-13540
▁Կոչ	-13541
▁խնդր	-13542
▁միտքը	-13543
▁պահից	-13544
ամթերքի	-13545
▁մերժել	-13546
▁նավերի	-13547
▁վերջից	-13548
▁ցուցահանդեսների	-13549
աի	-13550
▁կապերը	-13551
анг	-13552
Պոլ	-13553
ոտոպ	-13554
▁Fre	-13555
▁ատրճ	-13556
աբանների	-13557
▁սարսափելի	-13558
▁Գայ	-13559
▁դոցենտ	-13560
▁կոչման	-13561
▁չեղյալ	-13562
▁հանգուց	-13563
▁փորձարարական	-13564
վր	-13565
▁գինը	-13566
▁հսկա	-13567
▁կարդալ	-13568
ունքների	-13569
▁տարաձայն	-13570
▁դեղերի	-13571
▁փորձեր	-13572
▁ասպարեզում	-13573
▁շրջագայության	-13574
▁par	-13575
▁սիրային	-13576
▁լեռնաշխարհի	-13577
▁Ծաղ	-13578
▁բարեր	-13579
▁սակավ	-13580
▁որում՝	-13581
▁բեմադրվել	-13582
մշակ	-13583
▁Des	-13584
▁նախադաս	-13585
▁նրանում	-13586
▁կապիտալի	-13587
▁վայելում	-13588
▁մրցույթին	-13589
On	-13590
▁Don	-13591
▁նկատում	-13592
▁շաբաթաթերթ	-13593
bl	-13594
▁բացված	-13595
ուջ	-13596
▁Cr	-13597
եկամ	-13598
պելի	-13599
▁սառն	-13600
▁հրաշալի	-13601
▁Ալեքսանդրա	-13602
▁Դես	-13603
վային	-13604
▁հայց	-13605
▁գործարանը	-13606
▁մյուսները	-13607
երիզ	-13608
▁Դիտ	-13609
▁հիշատակի	-13610
▁ժամանակում	-13611
Երբ	-13612
ники	-13613
ոշափ	-13614
▁Տակ	-13615
▁Հարթ	-13616
▁ստեղն	-13617
▁անատոմ	-13618
▁թեկնած	-13619
▁ճակատի	-13620
▁վերահսկում	-13621
▁ուսումնարանը	-13622
ոնալ	-13623
▁թռիչք	-13624
▁շարքին	-13625
▁Ֆրանչես	-13626
▁շրջակայ	-13627
éd	-13628
իգմ	-13629
▁Կուպ	-13630
▁մետալ	-13631
▁Աթենքի	-13632
▁իջնում	-13633
▁առաջարկը	-13634
▁գործընթացների	-13635
ba	-13636
%),	-13637
Com	-13638
▁դրոշը	-13639
▁ֆրանս	-13640
▁գլխարկ	-13641
▁Բրիտանիան	-13642
▁Զելանդիայի	-13643
ավայի	-13644
▁Հասան	-13645
▁կարդում	-13646
Սովետական	-13647
▁համակարգերը	-13648
▁երկրպագուների	-13649
▁Կադ	-13650
▁մեքենա	-13651
▁պողպատ	-13652
երով՝	-13653
▁Gold	-13654
▁բրոնզ	-13655
▁ամուսնանալ	-13656
▁Պո	-13657
▁Բուս	-13658
▁լուծում	-13659
▁մասում՝	-13660
▁Cambridge	-13661
▁մամուլում	-13662
Բալ	-13663
▁XIV	-13664
▁գտավ	-13665
▁Գյումրի	-13666
▁ցանկացել	-13667
▁դասավանդում	-13668
նիվ	-13669
պիր	-13670
▁Խոշոր	-13671
▁կայքի	-13672
▁ալբոմում	-13673
▁նախագծերի	-13674
▁կառավարումը	-13675
ապս	-13676
ուտն	-13677
Կոմպոզիտոր	-13678
▁վաճառվում	-13679
կն	-13680
Կյան	-13681
կուլ	-13682
▁վիզ	-13683
▁Լոուր	-13684
աթաղանթի	-13685
▁կազմավորվել	-13686
աշայի	-13687
րամատ	-13688
▁բուրժ	-13689
▁ստացան	-13690
▁սրահում	-13691
▁Ենթարկվում	-13692
ն՝	-13693
htm	-13694
дов	-13695
բոն	-13696
▁պասիվ	-13697
▁Christ	-13698
ուղիների	-13699
▁կողմերը	-13700
▁երկարաժամկետ	-13701
▁Եզրափակ	-13702
▁թափվելը	-13703
▁նույնանուն	-13704
▁գրականությունը	-13705
բոլոր	-13706
▁City	-13707
▁Նազար	-13708
▁Շաբաթ	-13709
▁լքում	-13710
▁նախօր	-13711
▁գոյատև	-13712
▁օգտվել	-13713
▁Օքսֆորդի	-13714
▁հատվածներում	-13715
Ռո	-13716
ագոր	-13717
ալայի	-13718
▁փախել	-13719
▁համալիրը	-13720
եմաա	-13721
▁մանի	-13722
▁Սյուզ	-13723
▁կղզիները	-13724
▁կենդանաբանական	-13725
ева	-13726
▁հիփ	-13727
▁Աբով	-13728
ինները	-13729
▁պարկի	-13730
▁ժառանգական	-13731
чер	-13732
▁հռչ	-13733
Ռեժիսոր	-13734
.;	-13735
պց	-13736
սիի	-13737
Կենս	-13738
ավախ	-13739
րական	-13740
անկայի	-13741
▁դիզայնի	-13742
▁հաշվետվ	-13743
արտը	-13744
անձին	-13745
ջյուր	-13746
▁գրաֆիկական	-13747
Միս	-13748
▁Բելգի	-13749
▁Վասպուր	-13750
՞նչ	-13751
▁սլ	-13752
▁ցուցադրել	-13753
▁պատկերազարդ	-13754
▁ձագ	-13755
▁անցած	-13756
▁երկուս	-13757
▁Վիքիպեդ	-13758
▁դոկտորական	-13759
▁նահանգների	-13760
▁փաստաթղթերի	-13761
ья	-13762
tim	-13763
Հան	-13764
▁Ки	-13765
▁Խալ	-13766
ազորի	-13767
▁մեջբեր	-13768
ավանաբար	-13769
▁միավորներ	-13770
▁Մյ	-13771
ուած	-13772
▁Սայ	-13773
▁հեմ	-13774
Երկու	-13775
նումը	-13776
▁շոկոլ	-13777
▁բոլորին	-13778
▁թռչուններ	-13779
▁Ин	-13780
▁փշ	-13781
▁պատմվածքի	-13782
▁խորհրդատու	-13783
▁սկզբունքները	-13784
cc	-13785
գիր	-13786
ring	-13787
այեց	-13788
ոնան	-13789
▁Ալպ	-13790
▁Միհ	-13791
▁ուղի	-13792
▁պարտվեց	-13793
▁Կովկասում	-13794
▁энциклопедия	-13795
▁կազմակերպվում	-13796
▁սող	-13797
▁սյուժեն	-13798
фициальный	-13799
▁անվանակոչ	-13800
բալ	-13801
amil	-13802
▁աստղադիտարանի	-13803
no	-13804
Ներ	-13805
▁ро	-13806
▁муз	-13807
ապետը	-13808
▁Ստեպ	-13809
▁Բյուզանդական	-13810
▁Пер	-13811
առանց	-13812
▁օգուտ	-13813
▁Ամենայն	-13814
▁արդյունքներ	-13815
կովը	-13816
▁Համբարձ	-13817
▁քաղաքներից	-13818
▁երկրաբանական	-13819
▁для	-13820
▁Ռոյ	-13821
▁նահանջ	-13822
▁նվիրաբեր	-13823
▁հարավարևմտյան	-13824
իլիպ	-13825
ische	-13826
▁Տրապիզոնի	-13827
off	-13828
առա	-13829
ատերը	-13830
▁դեղն	-13831
▁Trans	-13832
ունքները	-13833
▁շահույթ	-13834
▁հաղորդակցության	-13835
▁ձեր	-13836
erson	-13837
▁Կրեմ	-13838
▁բուհ	-13839
▁Review	-13840
▁լեգեոներ	-13841
▁հյուպատոս	-13842
▁սպանությունը	-13843
▁ցուցահանդեսի	-13844
Կոլ	-13845
▁Պրի	-13846
▁Բրոն	-13847
րցանակ	-13848
▁պարապ	-13849
▁անցկացման	-13850
չորս	-13851
օրինի	-13852
ատերերի	-13853
հասարակ	-13854
▁Ներսես	-13855
ավն	-13856
րանքը	-13857
▁ֆանտ	-13858
երկրած	-13859
▁դասագր	-13860
▁ավարտեց	-13861
▁օպերացիոն	-13862
кова	-13863
▁Փող	-13864
▁Քիմ	-13865
▁կանց	-13866
ախտում	-13867
▁Անհատական	-13868
աթաղանթ	-13869
▁Վերջինիս	-13870
Մետ	-13871
նելիս	-13872
▁նշվել	-13873
▁չափավոր	-13874
▁վերաբերել	-13875
▁հեռարձակվել	-13876
▁էթն	-13877
Եվրոպ	-13878
ետում	-13879
ենտեզի	-13880
▁դիրքերը	-13881
▁փոփոխական	-13882
Հեռախոսահամար	-13883
▁֊	-13884
կաթ	-13885
▁զրահ	-13886
▁Սկիզբ	-13887
▁կարգում	-13888
ակլ	-13889
▁քո	-13890
▁Կոշ	-13891
ավորը	-13892
▁վետեր	-13893
▁словарь	-13894
▁ленинград	-13895
ուտոն	-13896
▁թանկ	-13897
▁Առաջն	-13898
филь	-13899
▁Not	-13900
ative	-13901
▁լորձ	-13902
▁Սիթիի	-13903
▁բռնաբար	-13904
▁օդանավակայան	-13905
oo	-13906
▁Pal	-13907
▁Բերտ	-13908
▁ռում	-13909
տոնում	-13910
Պրո	-13911
▁էգ	-13912
ոպոլի	-13913
▁Բաքու	-13914
▁գրախոս	-13915
▁ալբոմը՝	-13916
▁արտանետ	-13917
▁ազատագրման	-13918
▁պաշտպաններ	-13919
▁Լագ	-13920
▁Իլին	-13921
▁էլեկտրա	-13922
▁օգնելու	-13923
▁սպառնում	-13924
▁դադարեցնել	-13925
▁պատասխանել	-13926
▁հրամանատարի	-13927
միկ	-13928
▁Քաշ	-13929
▁շառ	-13930
եկավար	-13931
▁Բյուր	-13932
▁Վաղարշ	-13933
▁աջակցությունը	-13934
▁à	-13935
ենդը	-13936
▁Cap	-13937
▁կեսից	-13938
▁յուրօրինակ	-13939
▁Լուգ	-13940
պատյան	-13941
իլյա	-13942
▁ասած	-13943
▁ջրվեժ	-13944
ահարուստ	-13945
▁մատչելի	-13946
▁Ц	-13947
▁վեհ	-13948
▁Հում	-13949
▁կոմբին	-13950
▁վեկտոր	-13951
այնության	-13952
▁թվին	-13953
▁կորպուսի	-13954
▁հաջորդել	-13955
▁հաստատվեց	-13956
ադո	-13957
▁пер	-13958
ահարկ	-13959
ուական	-13960
▁մեկի՝	-13961
▁լեյտենանտ	-13962
ques	-13963
▁Ֆոլ	-13964
▁հիեր	-13965
▁ինքնատիպ	-13966
▁մրցանակ՝	-13967
▁անդամներին	-13968
fl	-13969
տարած	-13970
ողներն	-13971
▁տարեց	-13972
▁քրոնիկ	-13973
▁Միջագետ	-13974
▁Հրապարակ	-13975
▁եզրափակչի	-13976
Մալ	-13977
բիի	-13978
ոյե	-13979
ապաղ	-13980
▁ափամերձ	-13981
▁վայրերից	-13982
▁աղյուսակում	-13983
▁մարզադաշտում	-13984
▁մեծամասնության	-13985
ody	-13986
եյխ	-13987
իբր	-13988
azine	-13989
▁Կարդ	-13990
▁հրաբխային	-13991
▁ՖԱ	-13992
▁Կենդ	-13993
▁անդր	-13994
▁խռով	-13995
կովսկու	-13996
▁կոկորդ	-13997
▁ստորգետնյա	-13998
▁աշխատանքներում	-13999
ny	-14000
work	-14001
իանայի	-14002
▁փոխառ	-14003
արիբյան	-14004
▁երիտասարդների	-14005
ոյա	-14006
▁куль	-14007
ուղղակի	-14008
▁ինքնիշխան	-14009
▁Իգ	-14010
▁Սո	-14011
▁ճանաչվեց	-14012
▁−	-14013
ջան	-14014
▁под	-14015
▁Ռոտ	-14016
յուստ	-14017
▁բուռն	-14018
ատե	-14019
▁Ջերսի	-14020
▁հարկային	-14021
▁անդրադարձել	-14022
▁մասնակցելով	-14023
▁Քննադատություն	-14024
▁համագործակցում	-14025
DA	-14026
աձորի	-14027
▁Գրքի	-14028
▁ճեղք	-14029
▁Verlag	-14030
▁գաղթել	-14031
ասիրության	-14032
▁Գվին	-14033
▁Մենք	-14034
▁искус	-14035
▁Կլիման	-14036
▁հարձակումը	-14037
▁ներդրումների	-14038
աքիմ	-14039
վուդ	-14040
▁հորդ	-14041
▁Լոմբարդիա	-14042
▁Ստեղծագործական	-14043
թովպ	-14044
▁Թեն	-14045
ազգուշ	-14046
▁տարեթ	-14047
▁Գուստավ	-14048
աֆանտաստիկ	-14049
▁ամուսնական	-14050
▁պահանջները	-14051
▁մարմնավորում	-14052
))	-14053
րթ	-14054
amm	-14055
▁բուլ	-14056
իտային	-14057
▁կերակր	-14058
▁ջերմային	-14059
▁համաձայնագիր	-14060
կե	-14061
ոբին	-14062
▁թաղվել	-14063
▁Վալենտին	-14064
▁ամրացված	-14065
▁վերաբերմունքը	-14066
Իսպ	-14067
wood	-14068
▁Ուգ	-14069
▁քարի	-14070
▁նշաններ	-14071
րախաղ	-14072
ուղային	-14073
▁կաթված	-14074
▁Իվանովիչ	-14075
▁եղբայրը՝	-14076
▁առարկաներ	-14077
▁ներկայացնելու	-14078
տայի	-14079
▁Web	-14080
ապատի	-14081
▁XIII	-14082
▁հարդ	-14083
▁Վրացական	-14084
▁Համագործակց	-14085
▁դիմադրության	-14086
▁ժամանակավորապես	-14087
ցե	-14088
ագրին	-14089
▁հետևյալն	-14090
▁ջանքերով	-14091
▁օպտիկական	-14092
արդյունավետ	-14093
▁Պարսկաստանի	-14094
▁բավականաչափ	-14095
▁ենթաավազանը՝	-14096
uel	-14097
իա՝	-14098
▁Նեմ	-14099
▁Կորդ	-14100
Վերջին	-14101
▁պատերը	-14102
▁թիմային	-14103
▁գրավեցին	-14104
▁նախընտրում	-14105
▁մերձակայքում	-14106
анов	-14107
▁հարթավայր	-14108
▁կամավորական	-14109
▁մասնագետների	-14110
» 	-14111
ևեկ	-14112
իդներ	-14113
▁Best	-14114
▁Զագր	-14115
▁Դոմին	-14116
▁անհատի	-14117
▁երկաթի	-14118
▁նահատակ	-14119
▁կղզիներում	-14120
ied	-14121
աել	-14122
▁Թով	-14123
▁լիճը	-14124
▁տնօրին	-14125
ազորային	-14126
▁աշակերտների	-14127
hed	-14128
թեն	-14129
տոնը	-14130
▁Կավ	-14131
▁գաղտն	-14132
▁ատոմային	-14133
▁դերասանուհին	-14134
aft	-14135
▁մկրտ	-14136
▁Իրինա	-14137
▁բաժանմունք	-14138
▁Գոդ	-14139
Մարի	-14140
լանա	-14141
ազանգ	-14142
▁բարոկ	-14143
ասթափ	-14144
▁Տուլ	-14145
ներառյալ	-14146
▁թաքնված	-14147
▁մնացորդ	-14148
▁ամենօրյա	-14149
▁կանոնների	-14150
▁գիտություն	-14151
▁ցուցաբերում	-14152
▁Sim	-14153
▁Չայ	-14154
▁Լիգա	-14155
▁ռեփեր	-14156
ախաղում	-14157
պետական	-14158
▁գիտակց	-14159
▁թեյ	-14160
▁լիտ	-14161
▁լուսաբան	-14162
▁մակարդակում	-14163
▁հորիզոնականում	-14164
▁Em	-14165
▁Min	-14166
▁հեկտ	-14167
▁օղակ	-14168
ակայված	-14169
▁հանվել	-14170
▁ուղղությունը	-14171
▁ленинградских	-14172
▁Կրկ	-14173
աունի	-14174
ուրայում	-14175
▁Փենսիլվ	-14176
▁փորձագետ	-14177
▁Աստվածաշնչ	-14178
▁ներկայացումը	-14179
yr	-14180
▁արց	-14181
▁Դիարբեքիրի	-14182
▁պայմանական	-14183
▁ցուցադրում	-14184
leg	-14185
ոյս	-14186
սիմ	-14187
▁կվեր	-14188
▁համեմատած	-14189
▁գործընթացում	-14190
▁վերադառնալուց	-14191
²,	-14192
ago	-14193
▁Շեր	-14194
▁իմաստը	-14195
▁գրասենյակը	-14196
▁հովիտ	-14197
ացվեցին	-14198
тив	-14199
ագով	-14200
Ադրբեջ	-14201
▁մտնել	-14202
▁Armenian	-14203
▁Շեքսպիրի	-14204
▁նացիստական	-14205
▁Աչ	-14206
ուար	-14207
▁մասս	-14208
ընդուն	-14209
քներով	-14210
Որ	-14211
▁Բավ	-14212
▁Քոլ	-14213
ional	-14214
վադոս	-14215
▁Վերա	-14216
▁սոլո	-14217
▁գործնականում	-14218
▁կանխարգելման	-14219
▁Շվեյցարիայում	-14220
ty	-14221
ode	-14222
▁Դոստ	-14223
▁գրոս	-14224
▁հակաբի	-14225
Հյուսիսային	-14226
օրեն	-14227
ональ	-14228
աշահ	-14229
▁Nov	-14230
▁կդառն	-14231
▁Մյունխենի	-14232
Վր	-14233
ones	-14234
▁Mix	-14235
աստեղ	-14236
ուլիս	-14237
▁Հենրիխ	-14238
▁ջոկատի	-14239
▁լրատվական	-14240
▁բարձրացնել	-14241
▁մշակույթում	-14242
▁Ղուկ	-14243
▁դիաբ	-14244
▁մոսկ	-14245
itions	-14246
▁Liter	-14247
▁ավանդի	-14248
▁փորձեց	-14249
Հարավային	-14250
▁գործերից	-14251
▁հանձնաժողովը	-14252
լամի	-14253
▁ծավալի	-14254
▁դեպքերը	-14255
▁հիմնվելով	-14256
▁ուղղության	-14257
▁հյուսիսարևմտյան	-14258
▁Չորս	-14259
▁սանդղ	-14260
ատորներ	-14261
▁գալակտ	-14262
▁ցանկեր	-14263
րամանատար	-14264
▁անվանական	-14265
CH	-14266
ird	-14267
▁ма	-14268
▁թի	-14269
▁Հոֆ	-14270
▁դիմակայ	-14271
▁սցենարը	-14272
цы	-14273
▁раз	-14274
▁պլազմ	-14275
վետ	-14276
▁Բե	-14277
▁օրի	-14278
աներկ	-14279
▁պնդել	-14280
ռոմեական	-14281
▁կոչումներ	-14282
Am	-14283
▁տնկ	-14284
▁Ասիա	-14285
▁աֆրո	-14286
▁Լիպեցկի	-14287
".	-14288
Մանկ	-14289
▁Օլիվ	-14290
▁կոչել	-14291
▁×	-14292
.).	-14293
rem	-14294
կալի	-14295
▁Sal	-14296
▁Սոր	-14297
▁նայում	-14298
▁Ռուդոլֆ	-14299
▁ժողովրդին	-14300
▁անկախությունը	-14301
▁կարգը	-14302
ун	-14303
ida	-14304
▁Fe	-14305
▁Նեյ	-14306
▁Մանչ	-14307
▁խնայ	-14308
▁դրամատիկ	-14309
▁ուրիշների	-14310
▁Տա	-14311
▁Պին	-14312
Հայրենական	-14313
▁кни	-14314
ակրաց	-14315
անկարի	-14316
▁ընտրություններ	-14317
▁ուսումնասիրման	-14318
ibli	-14319
ահարթ	-14320
իկում	-14321
▁Պրով	-14322
▁կարգախոս	-14323
▁Ուկրաինական	-14324
▁По	-14325
▁Լյա	-14326
▁Գուն	-14327
վածները	-14328
▁շրջապատող	-14329
▁աշխատություններ	-14330
▁Գիշ	-14331
▁Գրոս	-14332
▁սլով	-14333
▁Heart	-14334
ացիներից	-14335
▁հաջողակ	-14336
▁կառավարել	-14337
▁գերազանցել	-14338
▁ահաբեկչական	-14339
▁վերադարձնել	-14340
ջր	-14341
ray	-14342
սերը	-14343
▁վրձ	-14344
▁Եղիշ	-14345
▁նկարչության	-14346
▁աղբյուրներում	-14347
▁Թոփ	-14348
▁ուժով	-14349
ֆիլը	-14350
▁Միրզ	-14351
երցիոն	-14352
▁բոլորի	-14353
▁քաղաքում՝	-14354
▁համեմատական	-14355
ior	-14356
▁դրեց	-14357
Գրեմմի	-14358
▁Դյուր	-14359
▁սկզբի	-14360
▁Լեհաստան	-14361
▁ընդգրկել	-14362
▁արժանանում	-14363
CD	-14364
հն	-14365
ոմայի	-14366
▁վտակ	-14367
▁Հայրապետ	-14368
▁բարեկամության	-14369
հակ	-14370
վալդ	-14371
▁փես	-14372
▁լյարդի	-14373
▁մեկնարկ	-14374
▁մշակումը	-14375
All	-14376
▁Ձև	-14377
վինի	-14378
եմիայի	-14379
▁կոպիտ	-14380
▁կտավի	-14381
▁մասը՝	-14382
Բիթլիսի	-14383
ets	-14384
արանոց	-14385
▁ծառերի	-14386
▁մատնանշ	-14387
▁երեխային	-14388
▁տնտեսագետներ	-14389
▁Ռեգ	-14390
▁մոգ	-14391
այսին	-14392
ուկով	-14393
▁Բանգ	-14394
▁Ռոնալդ	-14395
▁տպագրել	-14396
▁դրոշմազարդ	-14397
▁փաստաթղթեր	-14398
▁տարբերակները	-14399
ique	-14400
▁Mas	-14401
▁Վիգ	-14402
▁կրողներ	-14403
▁մարտերին	-14404
▁թողարկումից	-14405
ալներ	-14406
▁ռեկտոր	-14407
▁մրցաշրջանը	-14408
▁пере	-14409
▁առարկան	-14410
Գործ	-14411
▁Գաբ	-14412
աբերդ	-14413
ժողով	-14414
▁Բերդ	-14415
▁Մանի	-14416
▁խաղողի	-14417
ուդիայում	-14418
▁երկրամաս	-14419
▁ակումբներ	-14420
▁տնտեսագիտական	-14421
ís	-14422
tian	-14423
▁Ուես	-14424
▁կյանքն	-14425
▁փողոցների	-14426
▁մնացորդները	-14427
եյզ	-14428
▁IX	-14429
եմիա	-14430
▁անհն	-14431
▁Նիկող	-14432
▁գալուց	-14433
▁հանում	-14434
▁Նախապատմություն	-14435
ադին	-14436
▁բժշկի	-14437
▁դիտել	-14438
▁հուշահամալ	-14439
նրա	-14440
▁Գյոթ	-14441
▁Disney	-14442
▁պատճառները	-14443
▁Գազ	-14444
▁Assoc	-14445
▁Նույնիսկ	-14446
թա	-14447
▁Բյ	-14448
ոուլ	-14449
▁հեղափոխությունը	-14450
▁Մոս	-14451
ումայի	-14452
▁տիրոջ	-14453
▁կլիներ	-14454
▁փողոցը	-14455
▁թեմատիկ	-14456
▁զուգընթաց	-14457
▁իբն	-14458
▁օրն	-14459
▁զիջում	-14460
▁կանխելու	-14461
▁պահեստային	-14462
вя	-14463
եզիան	-14464
▁Century	-14465
▁երեխաներից	-14466
▁ակտիվության	-14467
▁Կարևոր	-14468
▁երազում	-14469
▁մրցավար	-14470
▁հաջորդող	-14471
▁լեռնաշղթայի	-14472
Էջը	-14473
Հետ	-14474
riti	-14475
եսյան	-14476
▁Քամ	-14477
▁Post	-14478
▁տների	-14479
ոքննադատ	-14480
▁Իտալիան	-14481
▁մրցավազ	-14482
▁հումանիտար	-14483
▁բնապահպանական	-14484
Օգ	-14485
▁Sk	-14486
▁Ակն	-14487
իզմին	-14488
ակենդան	-14489
▁երկերի	-14490
▁դասվում	-14491
▁շարժվել	-14492
▁ավտոբուս	-14493
▁պարամետր	-14494
ագնացության	-14495
Անգ	-14496
▁տեքստի	-14497
▁համոզել	-14498
▁բեմադրել	-14499
▁Իսպանական	-14500
▁իրավունքներ	-14501
▁հրատարակում	-14502
▁մայրաքաղաքի	-14503
▁հետախուզական	-14504
али	-14505
ուխը	-14506
▁դիրքի	-14507
▁դաշինքի	-14508
▁պոպուլյ	-14509
▁ուղևորվում	-14510
▁սարքավորումների	-14511
ays	-14512
ias	-14513
չատ	-14514
▁Ере	-14515
▁գիս	-14516
▁եղբոր՝	-14517
▁քաղաքացիություն	-14518
ծովյան	-14519
▁ձայնասկ	-14520
▁զբաղեցնելով	-14521
▁հաստատություն	-14522
ox	-14523
եյլի	-14524
▁Չապ	-14525
▁Edit	-14526
▁արեց	-14527
▁եղանակը	-14528
▁սահմանին	-14529
▁կառուցելու	-14530
▁հետաքրքրվել	-14531
Գեղ	-14532
▁զոհված	-14533
▁Պատմության	-14534
▁Հոկտեմբերյան	-14535
Սալ	-14536
վոն	-14537
ելլի	-14538
▁Գոն	-14539
▁Տաշ	-14540
աբանը	-14541
▁մորը	-14542
▁երթևեկ	-14543
▁Շվեդիայում	-14544
My	-14545
▁Աստծ	-14546
▁չվերթ	-14547
▁Մուհամմադ	-14548
▁ավստրիացի	-14549
▁փոխանցվել	-14550
Մոն	-14551
վորական	-14552
▁Ավստրիացի	-14553
▁նկարահանման	-14554
▁Գրքեր	-14555
▁երկրից	-14556
Ել	-14557
ude	-14558
ԳԲՏ	-14559
շեն	-14560
օգն	-14561
▁Ավգուստ	-14562
uer	-14563
▁լցված	-14564
▁վաղուց	-14565
▁հագեցած	-14566
ատեսակների	-14567
▁ճակատամարտի	-14568
ью	-14569
ներիս	-14570
▁Պարկ	-14571
▁իրավիճակի	-14572
▁փոխարինման	-14573
▁տրամաբանական	-14574
▁Առողջապահության	-14575
▁XII	-14576
ահասակ	-14577
▁Առաքել	-14578
▁օգնելով	-14579
▁սպիտակամորթ	-14580
▁արտադրություն	-14581
ոմո	-14582
▁Սախ	-14583
▁Սակ	-14584
▁Անաստ	-14585
▁Այսպիսի	-14586
աբույսերի	-14587
Ոչ	-14588
ոգն	-14589
▁հաղթահարել	-14590
▁պայմանագրով	-14591
als	-14592
Թագ	-14593
ուրն	-14594
eschicht	-14595
▁ժամկետը	-14596
▁շնչառական	-14597
▁Միջնադարյան	-14598
▁համամիութենական	-14599
▁իշխող	-14600
Գլխավոր	-14601
հատկապես	-14602
▁լուսավոր	-14603
համահեղինակ	-14604
▁նկարահանումների	-14605
ծծ	-14606
arch	-14607
▁էջում	-14608
▁կալցի	-14609
▁քննադատական	-14610
▁զբոսաշրջային	-14611
▁կոմպոզիտորների	-14612
ռայլ	-14613
իկացի	-14614
▁տեսնելով	-14615
▁ավտոմոբիլ	-14616
▁բարենպաստ	-14617
▁հանդիսացող	-14618
▁հիվանդանոցի	-14619
▁Հարավկորեացի	-14620
▁մակերևույթից	-14621
OR	-14622
рас	-14623
ther	-14624
իմոն	-14625
▁օպերան	-14626
▁հայտնեց	-14627
▁արշավանքի	-14628
▁կատարմամբ	-14629
▁հերոսները	-14630
▁սկզբներին	-14631
▁ակումբների	-14632
▁հաստատելու	-14633
ուբի	-14634
▁Բուշ	-14635
▁Ֆյոդ	-14636
▁ուտում	-14637
ут	-14638
ամոլ	-14639
▁տապան	-14640
ատարածքային	-14641
▁քանդակագործներ	-14642
▁հանրապետություն	-14643
▁Բրեդ	-14644
▁սիրտ	-14645
▁շուկա	-14646
▁շրջանց	-14647
▁ռազմաօդային	-14648
ura	-14649
աշապ	-14650
ուսիա	-14651
▁թիվն	-14652
▁գնդակը	-14653
▁ընկերներ	-14654
▁Արարատյան	-14655
▁բորբոքում	-14656
▁պարագայում	-14657
▁ընտրություն	-14658
omb	-14659
ատոհ	-14660
▁Սիդն	-14661
▁ափերին	-14662
▁Արծրուն	-14663
▁հաղորդման	-14664
▁համալսարանների	-14665
▁ph	-14666
▁ки	-14667
ogue	-14668
▁բլրի	-14669
▁այգեգործ	-14670
▁Նիդեռլանդ	-14671
▁մեղադրում	-14672
▁հանցագործության	-14673
%)։	-14674
▁աց	-14675
անար	-14676
▁Յոզեֆ	-14677
▁ջրերի	-14678
▁կարճատև	-14679
▁գաղութային	-14680
▁հատվածները	-14681
▁նյութափոխանակ	-14682
Don	-14683
▁երկս	-14684
▁խմոր	-14685
▁տներ	-14686
ուկում	-14687
▁Մոնրե	-14688
▁դանակ	-14689
բանական	-14690
▁հավելյալ	-14691
▁նկարահանվում	-14692
▁խանգարումների	-14693
▁Կապի	-14694
Ֆր	-14695
ուկին	-14696
▁ֆիքս	-14697
▁նկարված	-14698
▁Изд	-14699
րոպոլ	-14700
ակական	-14701
▁անվանի	-14702
▁որոնցով	-14703
▁օբյեկտիվ	-14704
ör	-14705
▁Ֆերն	-14706
▁նահան	-14707
ներկայաց	-14708
▁Ֆրանսուա	-14709
▁Ջեյն	-14710
▁շարժմանը	-14711
▁թաղվածներ	-14712
▁ընկերությանը	-14713
աև	-14714
▁Սահ	-14715
▁բլոգ	-14716
այսինքն	-14717
▁America	-14718
ականներից	-14719
▁անցնելու	-14720
րիա	-14721
ենտը	-14722
▁խորան	-14723
▁հիդրո	-14724
▁շոշափ	-14725
▁սուլթ	-14726
▁նապաստ	-14727
▁անփոփոխ	-14728
▁մայրցամաքային	-14729
atab	-14730
▁ռեպ	-14731
▁Պոնտ	-14732
▁վրացի	-14733
▁ապօրինի	-14734
ամերիկացի	-14735
▁հանքավայր	-14736
▁Բունդեսլիգ	-14737
▁իրականացված	-14738
»`	-14739
▁ծառի	-14740
սերիալ	-14741
▁Հայերեն	-14742
▁պարզվել	-14743
ատվության	-14744
▁Կովկասյան	-14745
▁նախազգուշ	-14746
▁պատմություններ	-14747
▁Ստորև	-14748
▁ռեժիսորի	-14749
FC	-14750
իգի	-14751
▁կարկ	-14752
▁Կաթոլիկ	-14753
▁բաժանումը	-14754
ավորումները	-14755
հին	-14756
▁Who	-14757
վողական	-14758
▁բազմամյա	-14759
դաս	-14760
արնջ	-14761
ենայի	-14762
▁դաստ	-14763
▁Անդամ	-14764
▁հղում	-14765
▁հողատարած	-14766
▁անվանումը՝	-14767
▁պաթ	-14768
▁Рост	-14769
Մարտական	-14770
▁Ախտորոշ	-14771
▁Յունայթեդի	-14772
▁երաժիշտների	-14773
;"	-14774
stad	-14775
պատվ	-14776
▁ընձ	-14777
▁բազում	-14778
▁զինվորները	-14779
ծաղ	-14780
▁Ни	-14781
удар	-14782
իմեր	-14783
ումում	-14784
▁David	-14785
▁ագրեսիվ	-14786
▁սենյակում	-14787
նավ	-14788
ield	-14789
▁Պիտեր	-14790
▁սատար	-14791
▁համաճարակ	-14792
▁հրետանային	-14793
▁կարիերայում	-14794
мян	-14795
զադ	-14796
▁Ռիվ	-14797
▁ամենալ	-14798
▁Կանադացի	-14799
▁Ուկրաինա	-14800
▁գլխավորապես	-14801
ուլս	-14802
▁Տագան	-14803
աշարավոր	-14804
▁դեպքում՝	-14805
▁ազատություն	-14806
▁միաբանության	-14807
eck	-14808
▁Կիլիկի	-14809
▁կոմպլեքս	-14810
ref	-14811
▁ԱԳՆ	-14812
▁Վեց	-14813
▁ձոր	-14814
անդակը	-14815
▁լեգեոնի	-14816
▁խախտում	-14817
իշչ	-14818
▁Կենտրոն	-14819
▁նվաճումների	-14820
▁հեռուստահաղորդ	-14821
ga	-14822
▁գինու	-14823
▁հավաստի	-14824
▁դիտարկվում	-14825
▁ժողովուրդը	-14826
▁пос	-14827
▁Ջան	-14828
▁Տերմ	-14829
▁կինն	-14830
▁Գավառի	-14831
▁վնասակար	-14832
▁Կարիերայի	-14833
▁Պորտուգալի	-14834
▁ենթադրաբար	-14835
▁թեկնածուներ	-14836
▁հայտնաբերում	-14837
▁խր	-14838
▁Տարվա	-14839
▁թրոմբ	-14840
▁ջութակահար	-14841
▁Ավստրիայում	-14842
▁թարգմանաբար	-14843
än	-14844
сп	-14845
ՍԱ	-14846
ama	-14847
աթթվի	-14848
rosoft	-14849
▁տարիքից	-14850
▁տափաստան	-14851
▁երկրաչափական	-14852
ոնիի	-14853
▁ազատամարտ	-14854
▁Ընկերության	-14855
раз	-14856
եբեկ	-14857
▁Ժիր	-14858
ԳԱ	-14859
▁Իլյա	-14860
▁հակառ	-14861
աչեսլավ	-14862
▁Ավելին	-14863
▁Library	-14864
Սեր	-14865
▁Զար	-14866
▁թիկ	-14867
▁պղպ	-14868
անդեր	-14869
▁Շմիդտ	-14870
▁հիպոթ	-14871
Օպերատոր	-14872
▁գենետիկ	-14873
▁պոտենցի	-14874
▁թեմաներով	-14875
hr	-14876
ute	-14877
ատն	-14878
▁օգնեց	-14879
▁մեղադրել	-14880
▁Կորեայում	-14881
▁ազատամարտիկ	-14882
▁Երկարությունը	-14883
▁աք	-14884
կազմ	-14885
իգուր	-14886
իստրատ	-14887
▁օրերի	-14888
▁անկումը	-14889
▁բերելով	-14890
▁իսպաներեն	-14891
▁թիկն	-14892
▁Իոսիֆ	-14893
▁դեմոկրատ	-14894
▁զարգանալ	-14895
▁աշխատանքն	-14896
▁մետրոպոլիտ	-14897
ցխ	-14898
ուտը	-14899
▁Show	-14900
▁ալերգ	-14901
անիային	-14902
▁Կուսակց	-14903
▁հայտնվեցին	-14904
իցը	-14905
▁Պադ	-14906
▁ձեզ	-14907
ոսներ	-14908
ցիները	-14909
▁թռչող	-14910
▁անսահման	-14911
▁մարգագետ	-14912
▁երկարության	-14913
յուգ	-14914
ուզեպ	-14915
▁պատշաճ	-14916
▁գենդերային	-14917
▁էկոլոգիական	-14918
շատ	-14919
վիչ	-14920
▁MTV	-14921
ավարտի	-14922
▁Դենիս	-14923
▁Եթովպ	-14924
▁հրաձգային	-14925
▁հիշատակվել	-14926
▁անվանակարգեր	-14927
TS	-14928
սեպ	-14929
▁Էթ	-14930
ամտի	-14931
ոգեբ	-14932
▁Պոն	-14933
▁Փոփ	-14934
մանում	-14935
▁Բույս	-14936
▁մյուսը	-14937
▁միաձուլ	-14938
Հովհաննես	-14939
▁տրամագծով	-14940
▁ավանդույթների	-14941
▁ا	-14942
ոն՝	-14943
▁կվ	-14944
▁Paul	-14945
▁Շվար	-14946
▁ադապտ	-14947
աշարային	-14948
▁ժյուրիի	-14949
▁կատարումը	-14950
▁կառավարություն	-14951
▁ac	-14952
ջյան	-14953
ֆերի	-14954
ոսյանը	-14955
ուլյար	-14956
▁Իբրահ	-14957
▁բուրգ	-14958
▁շնորհակալ	-14959
ող՝	-14960
▁Dev	-14961
ստերը	-14962
▁Խաղի	-14963
▁Գիտնական	-14964
нь	-14965
▁Պուլ	-14966
ոտային	-14967
▁խելացի	-14968
ավորները	-14969
▁տաճարում	-14970
ագս	-14971
ոգլ	-14972
▁եռակի	-14973
▁Ադրբեջանում	-14974
ծանոթ	-14975
▁Գրեն	-14976
▁գեղասահ	-14977
▁վնասված	-14978
▁կենտրոններ	-14979
րոդյուսերներ	-14980
[...]
